{"version":"1.0","truncation":null,"padding":null,"added_tokens":[{"id":0,"content":"[UNK]","single_word":false,"lstrip":false,"rstrip":false,"normalized":false,"special":true},{"id":1,"content":"[CLS]","single_word":false,"lstrip":false,"rstrip":false,"normalized":false,"special":true},{"id":2,"content":"[SEP]","single_word":false,"lstrip":false,"rstrip":false,"normalized":false,"special":true},{"id":3,"content":"[PAD]","single_word":false,"lstrip":false,"rstrip":false,"normalized":false,"special":true},{"id":4,"content":"[MASK]","single_word":false,"lstrip":false,"rstrip":false,"normalized":false,"special":true}],"normalizer":null,"pre_tokenizer":null,"post_processor":null,"decoder":null,"model":{"type":"BPE","dropout":null,"unk_token":"[UNK]","continuing_subword_prefix":null,"end_of_word_suffix":null,"fuse_unk":false,"byte_fallback":false,"ignore_merges":false,"vocab":{"[UNK]":0,"[CLS]":1,"[SEP]":2,"[PAD]":3,"[MASK]":4,"\n":5," ":6,"!":7,"\"":8,"#":9,"$":10,"%":11,"&":12,"'":13,"(":14,")":15,"*":16,"+":17,",":18,"-":19,".":20,"/":21,"0":22,"1":23,"2":24,"3":25,"4":26,"5":27,"6":28,"7":29,"8":30,"9":31,":":32,";":33,"<":34,"=":35,">":36,"?":37,"@":38,"A":39,"B":40,"C":41,"D":42,"E":43,"F":44,"G":45,"H":46,"I":47,"J":48,"K":49,"L":50,"M":51,"N":52,"O":53,"P":54,"Q":55,"R":56,"S":57,"T":58,"U":59,"V":60,"W":61,"X":62,"Y":63,"Z":64,"[":65,"]":66,"^":67,"a":68,"b":69,"c":70,"d":71,"e":72,"f":73,"g":74,"h":75,"i":76,"j":77,"k":78,"l":79,"m":80,"n":81,"o":82,"p":83,"q":84,"r":85,"s":86,"t":87,"u":88,"v":89,"w":90,"x":91,"y":92,"z":93,"£":94,"¥":95,"©":96,"°":97,"½":98,"Á":99,"Æ":100,"É":101,"×":102,"ß":103,"à":104,"á":105,"ã":106,"ä":107,"å":108,"æ":109,"ç":110,"è":111,"é":112,"ê":113,"ë":114,"í":115,"î":116,"ñ":117,"ó":118,"ô":119,"ö":120,"ú":121,"ü":122,"ć":123,"č":124,"ě":125,"ī":126,"ł":127,"Ō":128,"ō":129,"Š":130,"ū":131,"ž":132,"ǐ":133,"ǔ":134,"ǜ":135,"ə":136,"ɛ":137,"ɪ":138,"ʊ":139,"ˈ":140,"ː":141,"̍":142,"͘":143,"Π":144,"Ω":145,"έ":146,"α":147,"β":148,"δ":149,"ε":150,"ι":151,"λ":152,"μ":153,"ν":154,"ο":155,"π":156,"ς":157,"σ":158,"τ":159,"υ":160,"ω":161,"ό":162,"П":163,"в":164,"д":165,"и":166,"к":167,"н":168,"א":169,"ב":170,"י":171,"ל":172,"ר":173,"ש":174,"ת":175,"ا":176,"ت":177,"د":178,"س":179,"ك":180,"ل":181,"و":182,"ڠ":183,"ग":184,"न":185,"र":186,"ल":187,"ष":188,"ु":189,"े":190,"ो":191,"्":192,"ả":193,"ẩ":194,"‑":195,"–":196,"—":197,"’":198,"“":199,"”":200,"†":201,"‡":202,"…":203,"⁄":204,"₩":205,"₱":206,"→":207,"−":208,"♯":209,"の":210,"ア":211,"イ":212,"ク":213,"グ":214,"ジ":215,"ダ":216,"ッ":217,"ド":218,"ナ":219,"ブ":220,"ラ":221,"ル":222,"中":223,"为":224,"伊":225,"傳":226,"八":227,"利":228,"前":229,"勢":230,"史":231,"型":232,"士":233,"大":234,"学":235,"宝":236,"开":237,"律":238,"成":239,"戦":240,"春":241,"智":242,"望":243,"杜":244,"東":245,"民":246,"王":247,"甫":248,"田":249,"甲":250,"秘":251,"聖":252,"艦":253,"處":254,"衛":255,"解":256,"詩":257,"贈":258,"邵":259,"都":260,"鉄":261,"集":262,"魯":263,"e ":264,"s ":265,"th":266,"d ":267,"n ":268,"er":269,"t ":270,"the ":271,"in":272,"an":273,", ":274,"ed ":275,"y ":276,"or":277,". ":278,"ar":279,"al":280,"o ":281,"f ":282,"re":283,"on":284,"at":285,"of ":286,"a ":287,"en":288,"on ":289,"and ":290,"er ":291,"g ":292,"st":293,"in ":294,"ou":295,"ing ":296,"to ":297,"ic":298,"it":299,"as ":300,"es ":301,"ro":302,"il":303,"m ":304,"= ":305,"ac":306,"an ":307,"ion ":308,"h ":309,"al ":310,"el":311,"is":312,"he ":313,"at ":314,"is ":315,"@ ":316,"th ":317,"or ":318,"es":319,"as":320,"ec":321," , ":322,"ur":323,"was ":324,"ir":325,"om":326,"am":327,"ly ":328,"\" ":329,"em":330,"ol":331,"of the ":332,"en ":333,"-@ ":334,"@-@ ":335,"ad":336,"The ":337,"iv":338,"= = ":339,"et":340,"ow":341,"ig":342,"os":343,"im":344," . ":345,"wi":346,"un":347,"wh":348,"pl":349," \n":350,"ha":351,"ev":352,"ul":353,"k ":354,"id":355,"( ":356,"us":357,"ag":358,"ere ":359,"ent":360,"by ":361,"that ":362,"ch":363,"l ":364,"for ":365,"'s ":366,"ion":367,"with ":368,"ent ":369,"s , ":370,"con":371,"0 ":372,"ea":373,"in the ":374,". \n":375,"ar ":376,"op":377,"his ":378,"le ":379,"ri":380,"ra":381,"hi":382,"ov":383,"cl":384,"di":385,"ce ":386,"su":387,"for":388,". The ":389,"oun":390,"be":391,"19":392,"ex":393,"were ":394,"the":395,"pro":396,"res":397,"ab":398,"fro":399,"ation ":400,"ers ":401,"from ":402,"ted ":403,"com":404,"bu":405,"ap":406,"it ":407,"e , ":408,"20":409,"ep":410,") ":411,"att":412,"to the ":413,"oc":414,"tr":415,"ay ":416,"int":417,"ear":418,"ch ":419,"qu":420,"igh":421,"ity ":422,"w ":423,"ated ":424,"per":425,"est":426,"le":427,"had ":428,"ies ":429,"st ":430," @":431,"ter ":432,"our":433,"ts ":434,"ber ":435,"ate ":436,"li":437,"ot ":438,"tion ":439,"ther ":440,"ic ":441,"St":442,", and ":443,"str":444,"si":445,"ld ":446,"p ":447,"se":448,"all ":449," = = ":450,"ed the ":451,"ff":452,"oug":453,"um":454,"uc":455,"ing the ":456,"sp":457,"ich ":458,"ma":459,"ed to ":460,"fir":461,"od":462,"s . ":463,"e of ":464,"ir ":465,"rec":466,"and":467,"which ":468,"so ":469,"ut":470,"5 ":471,"ay":472,"ed by ":473,"all":474,"ve ":475,"ive ":476,"are ":477,"ot":478,"sh":479,"ame ":480,"est ":481,"out ":482,"be ":483,"In ":484,"ong ":485,"one ":486,"ary ":487,"Ch":488,"tur":489,"its ":490,"ions ":491,", the ":492,"ill":493,"ical ":494,"por":495,"; ":496,"ed":497,". A":498,"ing":499,"rit":500,"ass":501,"end":502,"own ":503,"ight ":504,".@ ":505," @-@ ":506,"par":507,"ally ":508,"ne":509,"av":510,"on the ":511,"but ":512,"shi":513,"ard ":514,"1 ":515,"de":516,"s and ":517,"ould ":518,"also ":519,"he":520,"ud":521,"ain":522,"fter ":523,"pos":524,"ast ":525," @.@ ":526,"we":527,"ough ":528,"not ":529,"first ":530,"stor":531,"3 ":532,". H":533,"200":534,"In":535,"ound ":536,"po":537,"their ":538,"2 ":539,"tw":540,"bo":541,"s of ":542,"ore ":543,"ak":544,"ge ":545,"ia ":546,"00 ":547,"u ":548,"ial ":549,"fl":550,"og":551,"wor":552,"ine ":553,". T":554,"tim":555," The ":556,"A ":557,"any ":558,"ost ":559,"Am":560,"gr":561,"if":562,"sc":563,"des":564,"for the ":565,"and the ":566,"ers":567,"ed in ":568,"ish ":569,"over":570,"ter":571,"us ":572,"br":573,"ren":574,"cont":575,"e the ":576,"ph":577,"sid":578,"201":579," . \n":580,"pp":581,"form":582,"' ":583,"two ":584,"bl":585,"ead ":586,"comm":587,"18":588,"have ":589,"been ":590,"ian ":591,"erv":592,",@ ":593,"il ":594,"er , ":595,"4 ":596,"dis":597,"ely ":598,"ember ":599,"ance ":600,"pon":601,"bec":602,"ome ":603,"– ":604,"age ":605,"ese ":606,"ow ":607,"Un":608,"oo":609,"ack":610,"ional ":611,"sec":612,"= \n":613,"6 ":614,"et ":615,"rop":616,"ind":617,"at the ":618,"amp":619,"Au":620,"other ":621,"oll":622,"fe":623,"ack ":624,"ft ":625,"ad ":626,"i ":627,"ord":628,"ess":629,"this ":630,"ment ":631,"pre":632,"from the ":633,"7 ":634,"has ":635,"ens":636,"id ":637,"es , ":638,"ign":639,"und":640,"ant ":641,"iz":642,"ence ":643,"= = \n":644,"eric":645,"Com":646,"lat":647,"able ":648,"after ":649,"res ":650,"ach":651,"ern ":652,"with the ":653,"duc":654,"pr":655,"esn":656,"Lesn":657,"fil":658,"ue ":659,"ree ":660,"ell":661,"pres":662,"they ":663,"our ":664,"8 ":665,"ish":666,"ain ":667,"eral ":668,"ision ":669,"aw":670,"ang":671,"ob":672,"Man":673," @,@ ":674,"Lesnar ":675,"ero ":676,"ed a ":677,"Americ":678,"ice ":679,"clud":680," = = = ":681,"ard":682,"An":683,"ous ":684,"would ":685,"ea ":686,"arm":687,"On ":688,"lar":689,"ition ":690,"el ":691," . The ":692,"Ar":693,"ting ":694,". In ":695,"= = = \n":696,"kn":697,"who ":698,"vi":699,"ach ":700,"plac":701,". He ":702,"fin":703,"sion ":704,"s were ":705,": ":706,"Nero ":707,"min":708,"man ":709,"most ":710,"eg":711,"includ":712,"ke ":713,"more ":714,"as the ":715,"ade ":716,"9 ":717,"car":718,"ist ":719,"It ":720,"orth ":721,"as a ":722,"dur":723,"ist":724,"mar":725,"yl":726,"etr":727,"cent":728,"mon":729,"only ":730,"ery ":731,"act":732,") , ":733,"thr":734,"au":735,"ew":736,"hil":737,"ropical ":738,"cre":739,"ant":740,"mov":741,"aus":742,"me":743,"ines ":744,"sev":745,"ans ":746,"head":747,"dec":748,"stri":749,"off":750,"ps ":751," , the ":752,"him ":753,"oon ":754,"ann":755,"ros":756,"Brit":757,"S ":758,"ited ":759,"fr":760,"enc":761,"gu":762,"y , ":763,"up":764,"194":765,"king ":766,"a , ":767,"when ":768,"ust ":769,"ast":770,"ear ":771,"Al":772,"num":773,"sur":774,"anc":775,"over ":776,"time ":777,"sa":778,"reg":779,"American ":780,"fac":781,"end ":782,"I ":783,"dep":784,"ks ":785,"three ":786,"bet":787,"batt":788,"land ":789,"loc":790,"ered ":791,"ivision ":792,"ple ":793,"bas":794,"ste":795,"pond":796,"pit":797,"ates ":798,"ason ":799,"mis":800,"ess ":801,"that the ":802,"— ":803,"ong":804,"C ":805,"ship ":806,"co":807,"into ":808,"art":809,"buil":810,"ful":811,"um ":812,"ations ":813,"ew ":814,"err":815,"ward ":816,"struc":817,"eries ":818,"ous":819,"beg":820,"spec":821,"Manil":822,"ble ":823,"pu":824,"evel":825,"ough":826,"ational ":827,"ill ":828,"ollow":829,"up ":830,"e and ":831,"whil":832,"in a ":833,"ents ":834,"mat":835," , and ":836,"to be ":837,"outh ":838,"ell ":839,"to":840,"eav":841,"ning ":842,". S":843,"air":844,"than ":845,". B":846,"es and ":847,"with":848,"play":849,"riv":850,"emb":851,"( 1":852,"sub":853,"Manila ":854,"of":855,"North ":856,"te":857,"tem":858,"ospond":859," S":860,"her ":861,"serv":862,"t of ":863,"ond ":864,"Mar":865,"through ":866,"az":867,"cc":868,"hel":869,"nam":870,". \" ":871,"where ":872,"000 ":873,"British ":874,"ating ":875,"199":876,"year":877,"out":878,"ure ":879,"film ":880,"km ":881,"ince ":882,"a s":883,"produc":884,"about ":885,"am ":886,"char":887,"eam ":888,"season ":889,"/ ":890,"Ro":891,"ed , ":892,"ect":893,"by the ":894,"tran":895,"city ":896,"ement ":897,"ign ":898,"comp":899,"evelop":900,"Wor":901,"tropical ":902,"ick":903,"ween ":904,"ipp":905,"mp":906,"though ":907,"made ":908,"star":909,"ose ":910,"ainst ":911,"Th":912,"anu":913,"ept":914,"number ":915,"col":916,"head ":917,"sel":918,"he was ":919,"mil":920,"against ":921,"s , and ":922,"try ":923,") . ":924,"ort":925,"known ":926,"between ":927,"Kor":928,"land":929,"iron":930,"app":931,"inter":932,"early ":933,"follow":934,"ler ":935,"s the ":936,"befor":937,"them ":938,"port ":939,"part":940," In ":941,"Fren":942,"with a ":943,"ound":944,"became ":945,"He ":946,"Phil":947,"ected ":948,"intul":949,"later ":950,"French ":951,"day ":952,"many ":953,"sy":954,"inv":955,"es of ":956,"develop":957,"gen":958,"ip":959,"was the ":960,"several ":961,"ily ":962,"add":963,"even":964,"ean ":965,"sup":966,"both ":967,"ber":968,"tak":969,"ed on ":970,"old ":971,"lo":972,"grou":973,"ood ":974,"cap":975,"nor":976,"ty":977,"x ":978,"e of the ":979,". W":980,"acc":981,"Bintul":982,"Oc":983,"United ":984,"fi":985,"nospond":986,"ran":987,"compl":988,"under ":989,"tor":990,"s in ":991,"ed in the ":992,"new ":993,"Jap":994,"owev":995,"igh ":996,"de ":997,"met":998,"ru":999,"tor ":1000,"overn":1001,"ked ":1002,"histor":1003,"prov":1004,"contin":1005,"Col":1006,"pe":1007,"some ":1008,"retur":1009,"it was ":1010,"Philipp":1011,"Batt":1012,"t , ":1013,"ation of ":1014,"during the ":1015,"eptember ":1016,"ironcl":1017,"son ":1018,"there ":1019,"alt":1020,"rema":1021,"ey":1022,"mill":1023,"inc":1024,"ater ":1025,"peri":1026,"September ":1027,"War ":1028,"tra":1029,". It ":1030,"ond":1031,"ower ":1032,"als ":1033,"oper":1034,"ed by the ":1035,"while ":1036,"bel":1037,"cho":1038,"could ":1039,"war":1040,"way ":1041,"writ":1042,"direc":1043,"forc":1044,"leas":1045,". Th":1046,"Y ":1047,"vis":1048,"ing to ":1049,"storm ":1050,"Division ":1051,"Ger":1052,"Ju":1053,"Sp":1054,"ten ":1055,"releas":1056,"began ":1057,"North Kor":1058,"tan":1059,"these ":1060,"ke":1061,"such ":1062,"lif":1063,"ought ":1064,"World ":1065,"gun":1066,"game ":1067,"ester ":1068," A":1069,"bro":1070,"dam":1071,"no ":1072,"sl":1073,"ed to the ":1074,". M":1075,"unt":1076,"used ":1077,"Steven":1078,"ings ":1079,"$ ":1080,"New ":1081,"men ":1082,"t of the ":1083,"ret":1084,"op ":1085,"second ":1086,"before ":1087,"30 ":1088,"olog":1089,"succ":1090,"desc":1091,"Bintulu ":1092,"Jun":1093,"io ":1094,". F":1095,"US ":1096,"coun":1097,"fan":1098,"area ":1099,"albu":1100,"oss":1101,"sist":1102,"Im":1103,"ail":1104,"gust ":1105,"sk":1106,"eng":1107,"E ":1108,"NY ":1109,"call":1110,"e @-@ ":1111,"s to ":1112,"ed and ":1113,"did ":1114,"continu":1115,"\" , ":1116,"found ":1117,"gre":1118,"sm":1119,"s . The ":1120,"then ":1121,". On ":1122,"along ":1123,"of a ":1124,"icul":1125,"10 ":1126,"tal":1127,"ect ":1128,"off ":1129,"Cl":1130,"team ":1131,"requ":1132,"being ":1133,"tober ":1134,"temnospond":1135,"October ":1136,"ures ":1137,"like ":1138,"August ":1139,"mission ":1140,"May ":1141,"bur":1142,"tri":1143,", but ":1144,"arch":1145,"ref":1146,"ities ":1147,"ific":1148,"publ":1149,"appear":1150,"Stevens ":1151,"album ":1152,"Car":1153,"four ":1154,"govern":1155,"Chin":1156,"ships ":1157,"million ":1158,"20 ":1159,"inn":1160,". O":1161,"conv":1162,"clas":1163,"remain":1164,"y of ":1165,"phoon ":1166,"trans":1167,"ron ":1168,"in 19":1169,"Ang":1170,"cur":1171,"each ":1172,"consid":1173,"quad":1174,"owever , ":1175,"until ":1176,"Le":1177,"ball ":1178,"down ":1179,"mod":1180,"west ":1181,"mus":1182,"oh":1183,"ost":1184,"ed with ":1185,"ari":1186,"had been ":1187,"ays ":1188,"ook ":1189,"Janu":1190,"do":1191,"s . \n":1192,". D":1193,"diff":1194,"have been ":1195,"January ":1196,"2 , ":1197,"Con":1198,"Par":1199,"since ":1200,"ite ":1201,"work ":1202,"back ":1203,"wea":1204,"rest":1205,"ately ":1206,"emor":1207,"ivers":1208,"disc":1209,"large ":1210,"Gu":1211,"UB":1212,"ially ":1213,"jor ":1214,"well ":1215,"ing a ":1216,"ship":1217,"15":1218,"Nov":1219,"cas":1220,"hal":1221,"pol":1222,"ually ":1223,"ection ":1224,"was a ":1225,"said ":1226,"match ":1227,"temnospondyl":1228,"Ed":1229,"ton ":1230,"ual ":1231,"ing , ":1232,"row":1233,"offic":1234,"July ":1235,"Is":1236,"pa":1237,"sol":1238,"ycl":1239,"ed that ":1240,"hib":1241,"Arm":1242,"built ":1243,"km / ":1244,"June ":1245,"km / h ":1246,"1 , ":1247,"les ":1248,"ors ":1249,"arr":1250,"ol ":1251,"haw ":1252,"ext ":1253,"becaus":1254,"high ":1255,"jo":1256,"la":1257,"ed for ":1258,"resul":1259,") and ":1260,"design":1261,"ampion":1262,"feat":1263,"centr":1264,"fantry ":1265,"November ":1266,"National ":1267,"Ol":1268,"Sh":1269,"dest":1270,"mu":1271,"nd ":1272,"od ":1273,"wind":1274,"attack":1275,"Lester ":1276,"Nav":1277,"sign":1278,"acu":1279,"def":1280,"hey ":1281,"Kers":1282,"bor":1283,"ne ":1284,"sou":1285,"ind ":1286,"rib":1287,". This ":1288,"ef":1289,"t the ":1290,"y and ":1291,"ord ":1292,"ames ":1293,", and the ":1294,"wee":1295,"ox":1296,"is the ":1297,"abl":1298," @,@ 000 ":1299,"Kershaw ":1300,"Ma":1301,"org":1302,"is a ":1303,"metres ":1304,"cr":1305,"long ":1306,"ub":1307,"emp":1308,"igin":1309,"raft ":1310,"e , and ":1311,"port":1312,"Comp":1313,"self ":1314," B":1315," and ":1316,"dea":1317,"pop":1318,", which ":1319,"around ":1320,"a and ":1321,"ects ":1322,"ted to ":1323,". A ":1324,"including ":1325,"during ":1326,"stem ":1327,"pitch":1328,"En":1329,"fam":1330,"high":1331,"man":1332,"ned ":1333,"ane ":1334,"evacu":1335,"ity of ":1336,"; the ":1337,"side ":1338,"creas":1339,"peo":1340,"San ":1341,"ak ":1342,"heav":1343,"k , ":1344,"thir":1345,"er and ":1346,"old":1347,"number of ":1348," On ":1349,"2nd ":1350,"eiv":1351,"gra":1352,"what ":1353,"ull":1354,"eaut":1355,"dist":1356,"appro":1357,"near ":1358," \" ":1359,"Gi":1360,"Wh":1361,"cycl":1362,"lin":1363,"ti":1364,"into the ":1365,"s , the ":1366,"sible ":1367,"Austr":1368,"Fr":1369,"WW":1370,"War":1371,"aur":1372,"det":1373,"eer ":1374,"series ":1375,"tly ":1376,"es were ":1377,"ism ":1378,"adv":1379,"ount":1380,"following ":1381,"north":1382,"did not ":1383,"Company ":1384,"light ":1385,"ation":1386,"act ":1387,"0 , ":1388,"Li":1389,"bre":1390,"del":1391,"go":1392,"lit":1393,"per ":1394,"arly ":1395,"alion ":1396,"play ":1397,"fron":1398,"complet":1399,"caus":1400,"line ":1401,"pass":1402,"same ":1403,"s of the ":1404,"ort ":1405,"olv":1406,"ever ":1407,"oci":1408,"larg":1409,") \n":1410,"[ ":1411,"dre":1412,"year ":1413,"origin":1414,"rist":1415,"ext":1416,"leg":1417,"Road ":1418," F":1419,"crit":1420,"gl":1421,"next ":1422,"took ":1423,", a ":1424,"ed as ":1425,"fire ":1426,"receiv":1427,"ture ":1428,"endes ":1429,"held ":1430,"band ":1431,"inst":1432,"ed from ":1433,"rev":1434,"ich":1435,"even ":1436,"tion of ":1437,"posit":1438,"success":1439," T":1440,"due ":1441,"sim":1442,"sing":1443,"ton":1444,"tro":1445,"ert":1446,"reach":1447,"position ":1448,"Pro":1449,"Tetr":1450,"US":1451,"] ":1452,"five ":1453,"ius ":1454,"ians ":1455,"ere":1456,"increas":1457,"anese ":1458,"ed his ":1459,"ire ":1460,"ague ":1461,"left ":1462,"one of the ":1463,"group ":1464,"government ":1465,"1 @.@ ":1466,"40 ":1467,"Dec":1468,"Mus":1469,"af":1470,"oy":1471,"town ":1472,"ide":1473,"tern":1474,"mph ":1475,"quadron ":1476,"UB @-@ ":1477,"17":1478,"5 , ":1479,"Gen":1480,"Joh":1481,"South ":1482,"dr":1483,"hous":1484,"ood":1485,"ped":1486,"som":1487,"yp":1488,"ants ":1489,"a 's ":1490,"state ":1491,"es to ":1492,"omin":1493,"emet":1494," . He ":1495,"ression ":1496,"previ":1497,"Japanese ":1498,"Nerv":1499,"nav":1500,"ying ":1501,"to a ":1502,"ech":1503,"poin":1504,"scen":1505,"under":1506,"able to ":1507,"view":1508,"much ":1509,"15 ":1510,"cros":1511,"if ":1512,"ment":1513,"ively ":1514,"ently ":1515,"exc":1516,"utler ":1517,"half ":1518,"metres ( ":1519,"Gore ":1520,"aul":1521,"fur":1522,"ith ":1523,"now ":1524,"pea":1525,"xim":1526,"flu":1527,"ously ":1528,"embass":1529,"Philippines ":1530,"describ":1531,"popul":1532,"ding ":1533,"dra":1534,"ket":1535,"te ":1536,"tow":1537,"the first ":1538,"ility ":1539,"iss":1540,"le of ":1541,"form ":1542,"force ":1543,"ained ":1544,"Commission ":1545,"death ":1546,"eauty ":1547," M":1548,"Co":1549,"Yor":1550,"division ":1551,"hy":1552,"not":1553,"pur":1554,"war ":1555,"yr":1556,"o , ":1557,"rol":1558,"eld ":1559,"for a ":1560,"ounc":1561,"attemp":1562,"allow":1563,"has been ":1564,"ful ":1565,"ironclad":1566,"people ":1567,"50 ":1568,"8 , ":1569,"@,@ ":1570,"came ":1571,"der ":1572,"may ":1573,"she ":1574,"tit":1575,"us , ":1576,"although ":1577,"er to ":1578,"es in ":1579,"196":1580,"design ":1581,"United St":1582,"German ":1583,"North Korean ":1584,"ampionship ":1585,"destro":1586,"organ":1587," H":1588,"Apr":1589,"Gre":1590,"equ":1591,"eff":1592,"east ":1593,"giv":1594,"e in ":1595,"inf":1596,"ics ":1597,"exp":1598,"resid":1599,"record ":1600,"shot ":1601,"bralt":1602,"Univers":1603,"south":1604,"third ":1605,"Gibralt":1606,"December ":1607," D":1608,"3 , ":1609,"ling ":1610,"os ":1611,"vari":1612,"erg":1613,"perform":1614,"establ":1615,"Infantry ":1616,"located ":1617,"milit":1618,"system ":1619,"WWE ":1620,"troop":1621," ) ":1622,"4 , ":1623,"ian":1624,"mor":1625,"ers , ":1626,"198":1627,"respon":1628,"intens":1629,"estim":1630,"ument ":1631,"gener":1632,"Navy ":1633,"6 , ":1634,"Br":1635,"cul":1636,"craft ":1637,"ied ":1638,"istr":1639,"late ":1640,"night ":1641,"ones ":1642,"Austral":1643,"No":1644,"Pl":1645,"Rus":1646,"Reg":1647,"can ":1648,"do ":1649,"kill":1650,"let":1651,"power ":1652,"still ":1653,"construc":1654,"expl":1655,"prot":1656,"sequ":1657,"few ":1658,"gun ":1659,"bar":1660,"dro":1661,"pat":1662,"tle ":1663,"udi":1664,"s that ":1665,"repres":1666,"of his ":1667,"ening ":1668,"action ":1669,"amm":1670,"major ":1671,"erry ":1672,"music ":1673,"Doc":1674,"For":1675,"Qu":1676,"son":1677,"ust":1678,"another ":1679,"read":1680,"replac":1681,"enz":1682,"stat":1683,"ace ":1684,"197":1685,"e , the ":1686,"miles ":1687,"Battalion ":1688,"period ":1689,"New Yor":1690,"Imag":1691,"further ":1692,"United States ":1693,"cemet":1694,"ey ":1695,"eas":1696,"mit":1697,"oth":1698,"vers":1699,"ert ":1700,"alist ":1701,"osaur":1702,"rais":1703,"comb":1704,". After ":1705,"weight ":1706,"boat":1707,"ia , ":1708,"former ":1709,"Austri":1710,"career ":1711,"such as ":1712,"called ":1713,"Angel":1714,"April ":1715,"9 , ":1716,"coll":1717,"ei":1718,"ebr":1719,"ious ":1720,"memb":1721,"ok":1722,"om ":1723,"scho":1724,"s in the ":1725,"ern":1726,"inning ":1727,", \" ":1728,"use ":1729,"sum":1730,"suff":1731,"theast ":1732,"ock":1733,"set ":1734,"defe":1735,"u F":1736,"centur":1737,"typhoon ":1738,"beli":1739,"100 ":1740,"93 ":1741,"Ad":1742,"Dod":1743,"ave ":1744,"der":1745,"fa":1746,"very ":1747,"yal ":1748,"ank ":1749,"ored ":1750,"rel":1751,"relat":1752,"in his ":1753,"ict ":1754,"omb":1755,"again ":1756,"east":1757,"rap":1758,"attack ":1759,"American B":1760,"March ":1761,"provid":1762,"ironclad ":1763,"embassy ":1764,"destroy":1765,"11 ":1766,"Ac":1767,"II":1768,"gh":1769,", he ":1770,"in ) ":1771,"ick ":1772,"es the ":1773,"that he ":1774,"six ":1775,"after the ":1776,"carri":1777,"medi":1778,"face ":1779,"ossal ":1780,"Doctor ":1781,"2 @.@ ":1782,"MA ":1783,"Rom":1784,"mm ":1785,"north ":1786,"viv":1787,"youn":1788,"init":1789,". E":1790,"atic ":1791,"ative ":1792,"er of ":1793,"iment ":1794," . A":1795,"cla":1796,"main ":1797,"ards ":1798,"audi":1799,"years ":1800,"Japan ":1801,"heavy ":1802,"military ":1803,"Cent":1804,"Pr":1805,"four":1806,"gg":1807,"les":1808,"rem":1809,"in 18":1810,"isod":1811,"ash":1812,"contr":1813,"rip":1814,"clos":1815,"episod":1816,"Christ":1817,"would be ":1818,"depression ":1819,"fully ":1820,"through the ":1821,"charac":1822,"support ":1823,"return ":1824,"life ":1825,"join":1826,"25 ":1827,"Vi":1828,"du":1829,"home ":1830,"lost ":1831,"name ":1832,"oot":1833,"sit":1834,"z ":1835,"s are ":1836,"on , ":1837,"ou ":1838,"as \" ":1839,"issu":1840," . T":1841,"ported ":1842,"aircraft ":1843,"differ":1844,"Russi":1845," = ":1846,"12 ":1847,"Butler ":1848,"hom":1849,"mec":1850,"atr":1851,"acros":1852,"idge ":1853,"aged ":1854,"peror ":1855,". Al":1856,"amphib":1857,"along the ":1858,"consider":1859,"League ":1860,"General ":1861,"establish":1862,"American Beauty ":1863,"14 ":1864,"Wil":1865,"lim":1866,"ver":1867,"conc":1868,"world ":1869,". They ":1870,"moved ":1871,"because ":1872,"Cor":1873,"N ":1874,"best ":1875,"ef ":1876,"ry ":1877,"ty ":1878,"ut ":1879,"s a ":1880,". L":1881,". R":1882,"o @-@ ":1883,"ically ":1884,"ictor":1885," . In ":1886,"peration ":1887,"ft ) ":1888,"local ":1889,"against the ":1890,"damage ":1891,"Olmec":1892,"estimated ":1893,"No. ":1894,"Mon":1895,"Mendes ":1896,"Per":1897,"back":1898,"him":1899,"jon":1900,"just ":1901,"led ":1902,"less ":1903,"sed ":1904,"tot":1905,"will ":1906,"water ":1907,"in M":1908,"ing of ":1909,"ica ":1910,"unc":1911,"hav":1912,"chang":1913,"ably ":1914,"occ":1915,"making ":1916,"ground ":1917,"command":1918,"place ":1919,"Nero 's ":1920,"modern ":1921,"John ":1922,"@,@ 000 ":1923,"Dodg":1924,"1st ":1925,"9th ":1926,"B ":1927,"City ":1928,"Eu":1929,"Riv":1930,"ath":1931,"los":1932,"rad":1933,"se ":1934,"south ":1935,"win ":1936,"influ":1937,"enn":1938,"studi":1939,"road ":1940,"exam":1941,"it is ":1942,"had a ":1943,"strong ":1944,"ed to be ":1945,"ute ":1946,"ended ":1947,"they were ":1948,"final ":1949,"river ":1950,"Royal ":1951,"Muse":1952,") . The ":1953,"3 @.@ ":1954,"Fl":1955,"UF":1956,"ah ":1957,"ie ":1958,"ig ":1959,"mi ":1960,"rul":1961,"round ":1962,"went ":1963,"those ":1964,"ang ":1965,"es of the ":1966,"die ":1967,"work":1968,"battle ":1969,"tropical cycl":1970,"involv":1971,"North Kore":1972,"single ":1973,"u Fu ":1974,"00":1975,"JMA ":1976,"Nak":1977,"dem":1978,"ron":1979,"uro":1980,"ering ":1981,"on a ":1982,"sty":1983,"stra":1984,"es that ":1985,"acon ":1986,"al of ":1987,"urr":1988,"imag":1989,"ody ":1990,"ogra":1991,"over the ":1992,"small ":1993,"Chinese ":1994,"transf":1995,"due to ":1996,"16":1997,"Cal":1998,"Lor":1999,"RA ":2000,"cor":2001,"cha":2002,"em ":2003,"liv":2004,"wat":2005,"er of the ":2006,"was also ":2007,"irid":2008,"amb":2009,"ems ":2010,"import":2011,"ation , ":2012,"ers and ":2013,"show":2014,"post":2015,"film":2016,"away ":2017,"Span":2018,"Nerva ":2019,"believ":2020,"Ital":2021,"Sen":2022,"fle":2023,"pal":2024,"pet":2025,"set":2026,"tre":2027,"wro":2028,"west":2029,"icip":2030,"ung":2031,"event":2032,"idd":2033,"ock ":2034,"Ste":2035,"ending ":2036,"grad":2037,"command ":2038,"commun":2039,"surviv":2040,"species ":2041,"Battle of ":2042,"World War ":2043,"simil":2044,"intensity ":2045,"members ":2046,"claim":2047,"himself ":2048,"Lorenz":2049,") . \n":2050,"@.@ ":2051,"At":2052,"Em":2053,"Head ":2054,"Operation ":2055,"Su":2056,"div":2057,"eth":2058,"fel":2059,"games ":2060,"im ":2061,"last ":2062,"ots ":2063,"round":2064,"s ( ":2065,"ed at ":2066,"reet ":2067,"ont":2068,"rol ":2069,"an , ":2070,"ion of ":2071,"\" and ":2072," . It ":2073,"agre":2074,"chil":2075,"sugg":2076,"lead":2077,"maint":2078,"Char":2079,"Championship ":2080,"reng":2081,"named ":2082,"history ":2083,"NY 93 ":2084,"UFC ":2085,"..":2086,"27":2087,"Award ":2088,"Squadron ":2089,"fri":2090,"fav":2091,"hum":2092,"top ":2093,"uary ":2094,"t and ":2095,"a ( ":2096,"elev":2097,"conn":2098,"spe":2099,"announc":2100,"production ":2101,"under the ":2102,"country ":2103,"discover":2104,"title ":2105,"Lorenzo ":2106,"Ag":2107,"Fil":2108,"Jew":2109,"Lat":2110,"R ":2111,"bomb":2112,"civ":2113,"days ":2114,"tong ":2115,"erc":2116,". N":2117,"arriv":2118,"one of ":2119,"a m":2120,"in 200":2121,"itional ":2122,"is also ":2123,"193":2124,"person":2125,"seen ":2126,"All ":2127,"within the ":2128,"often ":2129,"naval ":2130,"Naktong ":2131,"Ge":2132,"Off":2133,"Rec":2134,"hind ":2135,"run":2136,"rout":2137,"sent ":2138,"ubl":2139,"vide":2140,"ition":2141,"es . \n":2142,"ass ":2143,"uring ":2144,"own":2145,"wide ":2146,"exic":2147,"prob":2148,"proc":2149,"ensive ":2150,"Arjon":2151,"augh":2152,"azirid":2153,"development ":2154,"typ":2155,"Eddie ":2156,"soldi":2157,"week ":2158,"echn":2159,"ebruary ":2160,"% ":2161,"Best ":2162,"February ":2163,"Lond":2164,"Sch":2165,"ax":2166,"aff":2167,"cour":2168,"ker ":2169,"tions ":2170,". P":2171,"on @-@ ":2172,"stand":2173,"streng":2174,"ise ":2175,"urb":2176,"ements ":2177,"earli":2178,"least ":2179,"poet":2180,"boo":2181,"scre":2182,"armor ":2183,"without ":2184,"started ":2185,"burg ":2186,"Army ":2187,"Olmec ":2188,"AA ":2189,"Di":2190,"Pac":2191,"Rep":2192,"dres":2193,"fig":2194,"ves ":2195,"yphoon ":2196,"e ( ":2197,"them":2198,"oul":2199,"ing that ":2200,"to g":2201,"ident":2202,"200 ":2203,"track ":2204,"lik":2205,"Stor":2206,"sifi":2207,"record":2208,"ific ":2209,"becom":2210,"ampion ":2211,"ized ":2212,"heads ":2213,"into a ":2214,"too ":2215,"transp":2216,"compet":2217,"particul":2218,"return":2219,"tank ":2220,"given ":2221,"leshi":2222,"North Koreans ":2223,"ograph":2224,"Spanish ":2225,"0s ":2226,"16 ":2227,"17 ":2228,"As":2229,"Bl":2230,"Can":2231,"Derry ":2232,"Gr":2233,"Hit":2234,"Rick":2235,"Wal":2236,"Wrest":2237,"cir":2238,"ient ":2239,"now":2240,"oid":2241,"pi":2242,"sul":2243,"ven":2244,"yweight ":2245,"s on ":2246,"alth ":2247,"ing in ":2248,"at a ":2249,"\" . \n":2250,"behind ":2251,"trad":2252,"possible ":2253,"board ":2254,"ording to ":2255,"prim":2256,". In the ":2257,"hile ":2258,"pite ":2259,"building ":2260,"service ":2261,"group":2262,"mi ) ":2263,"13 ":2264,"Bur":2265,"eas ":2266,"eth ":2267,"gave ":2268,"hand":2269,"memor":2270,"rac":2271,"right ":2272,"sch":2273,"techn":2274,"thought ":2275,"ed on the ":2276,"arch ":2277,"ald ":2278,"role ":2279,"plann":2280,"exec":2281,"proj":2282,"ation of the ":2283,"Street ":2284,"Indi":2285,"18 ":2286,"mark":2287,"basket":2288,"coach ":2289,"ective ":2290,"field ":2291,"family ":2292,"reached ":2293,"New York ":2294,"either ":2295,"Roman ":2296,"Willi":2297,"suggest":2298,"... ":2299,"'t ":2300,"Ball ":2301,"Met":2302,"hear":2303,"lead ":2304,"pow":2305,"pri":2306,"soon ":2307,"vill":2308,"yn":2309,"ina ":2310,"ed of ":2311,"once ":2312,"a C":2313,"and a ":2314,"stone ":2315,"ech ":2316,"emy ":2317,"cond":2318,"close ":2319,"ex ":2320,"ted by ":2321,"perial ":2322,"spir":2323,"turre":2324,"Indep":2325,"ake ":2326,"activ":2327,"decid":2328,"strike":2329,". \" \n":2330,"original ":2331,"peak ":2332,"Gibraltar ":2333,"cemeteries ":2334,"wrote ":2335,"21 ":2336,"Du Fu ":2337,"M ":2338,"New":2339,"Sar":2340,"camp":2341,"hen ":2342,"leav":2343,"re @-@ ":2344,"won ":2345,"era ":2346,"areas ":2347,"ing and ":2348,"was not ":2349,"\" the ":2350,"ement":2351,"imet":2352,"( C":2353,"ers were ":2354,"ep ":2355,"ley ":2356,"sib":2357,"part of the ":2358,"ified ":2359,"included ":2360,"ists ":2361,"etry ":2362,"end of the ":2363,"berg ":2364,". These ":2365,"curren":2366,"weak":2367,"temnospondyls ":2368,"Tetrarch":2369,"ype ":2370,"different ":2371,"River ":2372,"felt ":2373,"10":2374,"Du":2375,"Fir":2376,"Po":2377,"Re":2378,"how ":2379,"wood ":2380,"thre":2381,"t to ":2382,"any":2383,"rep":2384,"a \" ":2385,"ened ":2386,"as well ":2387,"es . The ":2388,"uring the ":2389,"ired ":2390,"( 200":2391,"age of ":2392,"ental ":2393,"ential ":2394,"track":2395,"ighting ":2396,"all , ":2397,". However , ":2398,"Comm":2399,"ished ":2400,"saw ":2401,"battleshi":2402,"addition ":2403,"northeast ":2404,"train":2405,"considered ":2406,"France ":2407,"cross":2408,"having ":2409,"Europ":2410,"important ":2411,"Hitler ":2412," O":2413," W":2414,"Clar":2415,"Ta":2416,"U @-@ ":2417,"gam":2418,"ier ":2419,"i @-@ ":2420,"national ":2421,"ution ":2422,"ange ":2423,"arian ":2424,"ale ":2425,"stit":2426,"es , and ":2427,"or , ":2428,"esp":2429,"ulp":2430,"ability ":2431,"intro":2432,"quick":2433,"State ":2434,"mak":2435,"s . T":2436,"part of ":2437,"story ":2438,"prev":2439,"id @-@ ":2440,"strial ":2441,"while the ":2442,"colossal ":2443,"between the ":2444,"public ":2445,"Lester 's ":2446,"San Lorenzo ":2447,"book ":2448,"23":2449,"Bacon ":2450,"Nor":2451,"Tropical ":2452,"air ":2453,"eight ":2454,"ix":2455,"long":2456,"mo":2457,"mot":2458,"sha":2459,"uz":2460,"vol":2461,". Lesnar ":2462,"ality ":2463,"ster ":2464,"as an ":2465,"roc":2466,"he had ":2467,"among ":2468,"ploy":2469,"ove ":2470," = = = = ":2471,"ington ":2472,"assad":2473,"new":2474,"ifen":2475,"scrip":2476,"headdres":2477,"special ":2478,"oughout ":2479,"ificant ":2480,"ooden ":2481,"fourth ":2482,"urric":2483,"Bas":2484,"Mexic":2485,"Sec":2486,"cop":2487,"dar":2488,"hor":2489,"hour":2490,"however , ":2491,"ik":2492,"nec":2493,"never ":2494,"tell":2495,"we ":2496,"ys":2497,"thor":2498,"ed that the ":2499,"ory ":2500,"atur":2501,"ital ":2502,"th centur":2503," , but ":2504,"ams ":2505,"image ":2506,"s , but ":2507,"rainf":2508,"experi":2509,"ts and ":2510,"which was ":2511,"show ":2512,"ense ":2513,"angu":2514,"more than ":2515,"stein ":2516,"eavyweight ":2517,"bert ":2518,"released ":2519,"ological ":2520,"China ":2521,"borne ":2522,"received ":2523,"previous ":2524,"previously ":2525,"Regiment ":2526,"defeated ":2527,"similar ":2528,"Jewish ":2529,"introduc":2530,"4 @.@ ":2531,"Hi":2532,"RA":2533,"TW":2534,"Typhoon ":2535,"Year ":2536,"bon":2537,"ether ":2538,"fight ":2539,"iqu":2540,"lab":2541,"mag":2542,"ug":2543,"wo ":2544,"erence ":2545,"ins ":2546,"ank":2547,"almost ":2548,"ator ":2549,"ature ":2550,"on September ":2551,"at least ":2552,"oph":2553,"opp":2554,"atter ":2555,"s . He ":2556,"eder":2557,"sculp":2558,"when the ":2559,"km ) ":2560,"load":2561,"guns ":2562,"dom ":2563,"difficul":2564,"paint":2565,"laun":2566,"features ":2567,"oxazirid":2568,"ready ":2569,"school ":2570,"studio ":2571,"Latin ":2572,"quickly ":2573,"ifenburg ":2574,"25":2575,"27 ":2576,"6 @.@ ":2577,"Afr":2578,"Er":2579,"He":2580,"JTW":2581,"K ":2582,"Rob":2583,"lines ":2584,"ms ":2585,"e was ":2586,"ed with the ":2587,"y the ":2588,". C":2589,"ing to the ":2590,"omet":2591,"= = = = \n":2592,"ever":2593,"ull ":2594,"0 @.@ ":2595,"out of ":2596,"; he ":2597,"avail":2598,"section ":2599,"indic":2600,"miss":2601,"company ":2602,"tropical depression ":2603,"take ":2604,"taken ":2605,"Philippine ":2606,"off the ":2607,"central ":2608,"winds of ":2609,"Tetrarch ":2610,"organiz":2611,"soldiers ":2612,"Republ":2613,"7 , ":2614,": \n":2615,"Bu":2616,"Mc":2617,"Pol":2618,"We":2619,"au ":2620,"body ":2621,"cover":2622,"fic":2623,"ials ":2624,"mid @-@ ":2625,"patt":2626,"rd ":2627,"song ":2628,"soci":2629,"ters ":2630,"val":2631,"ward":2632,"erve ":2633,"endi":2634,"stre":2635,"steam ":2636,"to re":2637,"an 's ":2638," . H":2639,"ular ":2640,"ide ":2641,"consist":2642,"rather ":2643,"ation and ":2644,"intend":2645,"make ":2646,"s . In ":2647,"assign":2648,"associ":2649,"time , ":2650,"2010 ":2651,"2012 ":2652,"view ":2653,"antly ":2654,"ency ":2655,"ongs":2656,"tropical storm ":2657,"syn":2658,"captur":2659,"range ":2660,"eye ":2661,"written ":2662,"forces ":2663,"broad":2664,"great ":2665,"Angle ":2666,"Lie":2667,"University ":2668,"troops ":2669,"across the ":2670,"style ":2671,"Ricky ":2672," L":2673,"13":2674,"23 ":2675,"24 ":2676,"60 ":2677,"Ku":2678,"Or":2679,"Youn":2680,"Yongs":2681,"bri":2682,"foc":2683,"fall ":2684,"fif":2685,"host":2686,"ium ":2687,"jur":2688,"lea":2689,"mb":2690,"ustr":2691,"wind ":2692,"ines , ":2693,"art ":2694,"ar , ":2695,"onom":2696,"in , ":2697,"ason":2698,"ident ":2699,"ribu":2700,"ted the ":2701,"ed by a ":2702,"ions of ":2703,". At ":2704,"part ":2705,". His ":2706,"ogn":2707,"pris":2708,"present ":2709,"seven ":2710,"struck ":2711,"put ":2712,"within ":2713," In the ":2714,"appearance ":2715,"Carol":2716,"When ":2717,"deliv":2718,"caused ":2719,"responsible ":2720,"Russian ":2721,"First ":2722,"assador ":2723," R":2724,"22 ":2725,"8 @.@ ":2726,"Dom":2727,"Mat":2728,"Os":2729,"Pal":2730,"Val":2731,"ah":2732,"can":2733,"cal":2734,"cast ":2735,"dead ":2736,"fail":2737,"hon":2738,"ior ":2739,"kil":2740,"langu":2741,"prec":2742,"sen":2743,"tour":2744,"yn ":2745,"thod":2746,"ate , ":2747,"ena ":2748,"stud":2749,"ican ":2750,"was re":2751,"iron ":2752,"imp":2753,"unit ":2754,"using ":2755,"ions , ":2756,"conf":2757,"ress":2758,"should ":2759,"tural ":2760,"formed ":2761,"armored ":2762,"monit":2763,"meet":2764,". When ":2765,"tank":2766," After ":2767,"continued to ":2768,"Claudi":2769,"until the ":2770,"ountain ":2771,"critic":2772,"represent":2773,"combin":2774,"Austrian ":2775,"occup":2776,"fleet ":2777,"iddle ":2778,"Stein":2779,"London ":2780,"urricane ":2781,"JTWC ":2782,"14":2783,"1 @,@ ":2784,"D ":2785,"Rome ":2786,"eon ":2787,"i , ":2788,"low":2789,"mer ":2790,"prais":2791,"say":2792,"wooden ":2793,"ateg":2794,"stated ":2795,"ile ":2796,"en , ":2797,"adop":2798,"adap":2799,"ime ":2800,"from a ":2801,"ept ":2802,"ightly ":2803,"oured ":2804,"siz":2805,"recogn":2806,"ney ":2807,"post ":2808,"control ":2809,"ence of ":2810,"Arch":2811,": \" ":2812,"ences ":2813,"end of ":2814,"There ":2815,"around the ":2816,"draw":2817,"ironclads ":2818,"Australia ":2819,"father ":2820,"young":2821,"exampl":2822,"video ":2823,"William ":2824,"26 ":2825,"2 @,@ ":2826,"500 ":2827,"AS":2828,"Bro":2829,"Don":2830,"Har":2831,"Jos":2832,"aign ":2833,"eal":2834,"fre":2835,"latter ":2836,"rang":2837,"ways ":2838,"you ":2839,"ed it ":2840,". In":2841,"of M":2842,"in which ":2843,"advis":2844,"wid":2845,"ung ":2846,"rab":2847,"hit ":2848,"extr":2849,"appoin":2850,"inters":2851,"six":2852,"porary ":2853,"need":2854,"become ":2855,"Ant":2856,"month":2857,"meas":2858,"when he ":2859,"better ":2860,"full ":2861,"player ":2862,"suppl":2863,"torped":2864,"run ":2865,"operations ":2866,". There ":2867,"polit":2868,"deter":2869,"liter":2870,"killed ":2871,"character ":2872,"Italian ":2873,"rainfall ":2874,"0s , ":2875,"31":2876,"Gaz":2877,"Port":2878,"Type ":2879,"aut":2880,"bit":2881,"dou":2882,"red ":2883,"sw":2884,"sour":2885,"won the ":2886,"wrest":2887,"thern ":2888,"already ":2889,"reli":2890,"and S":2891,"and , ":2892,"al , ":2893,"th of ":2894,"amuro":2895,"ospit":2896,"imes ":2897,"wif":2898,"used to ":2899,"use of ":2900,"for his ":2901,"resp":2902,"compos":2903,"apol":2904,"tramuro":2905,"ated the ":2906,"umn ":2907,"Intramuro":2908,"2015 ":2909,"pped ":2910,"second":2911,"ment of ":2912,"movement ":2913,"known as ":2914,"particip":2915,"owever ":2916,". It was ":2917,"damaged ":2918,"area of ":2919,"born ":2920,"Eng":2921,"evacue":2922,"little ":2923,"toward ":2924,"Great ":2925,"construction ":2926,"miles ( ":2927,"eastern ":2928,"initially ":2929,"Dodgers ":2930,"Museum ":2931,"transferr":2932,"elevision ":2933,"probably ":2934,"basketball ":2935,"Independi":2936,"shap":2937,"Independient":2938,"Bo":2939,"Bul":2940,"F ":2941,"Gl":2942,"James ":2943,"Kir":2944,"King":2945,"aj":2946,"ae ":2947,"bra":2948,"mall ":2949,"mach":2950,"no":2951,"oil ":2952,"ral ":2953,"sat":2954,"victor":2955,"wal":2956,"ymp":2957,"injur":2958,"ed \" ":2959,"ed . \n":2960,"arily ":2961,"review":2962,"in 199":2963,"ices ":2964,"row ":2965,"acy ":2966,"assist":2967," , which ":2968,"emperor ":2969,"ivid":2970,"immedi":2971,"plat":2972,"age , ":2973,"19 ":2974,"probl":2975,"ers to ":2976,"ted in ":2977,"come ":2978,"interv":2979,"quart":2980,"ated by ":2981,"lege ":2982,"ports ":2983,"ingly ":2984,"s and the ":2985,"working ":2986,"side the ":2987,"commemor":2988,"Under":2989,"individ":2990,"ishop ":2991,"America ":2992,". He was ":2993,"throughout ":2994,"Britain ":2995,"gust":2996,"compan":2997,"ruis":2998,"began to ":2999,"engag":3000,"publish":3001,"police ":3002,"Major ":3003,"famil":3004,"northwest ":3005,"front ":3006,"largest ":3007,"originally ":3008,"instead ":3009,"positions ":3010,"successful ":3011,"Force ":3012,"destroyed ":3013,"Senate ":3014,"Office ":3015,"Saraw":3016,"magaz":3017,"available ":3018,"rather than ":3019,"Yongsan ":3020,"Carolyn ":3021,"Domit":3022," A ":3023,"24":3024,"5 @.@ ":3025,"80 ":3026,"A. ":3027,"Big ":3028,"Cas":3029,"El":3030,"L ":3031,"Mort":3032,"Sy":3033,"Tor":3034,"aqu":3035,"ball":3036,"cam":3037,"den":3038,"get":3039,"hour ":3040,"ial":3041,"ire":3042,"lack ":3043,"nomin":3044,"wan":3045,"s for ":3046,"s with ":3047,"anim":3048,"ed an ":3049,"ed out ":3050,"a . \n":3051,"achi":3052,"igence ":3053," . S":3054,"ush":3055,"class":3056,"exist":3057,"prop":3058,"list":3059,"maxim":3060,"s . H":3061,"shar":3062,"Champion ":3063,"illery ":3064,"poet ":3065,"flo":3066,"flood":3067,"observ":3068,"month ":3069,"monument ":3070,") , and ":3071,"steel ":3072,"teen ":3073,"Imperial ":3074,"public":3075,"official ":3076,"effor":3077,"Engl":3078,"2nd Division ":3079,"approxim":3080,"drew ":3081,"aff ":3082,"point ":3083,"morning ":3084,"civil":3085,"route ":3086,"earlier ":3087,"Pacific ":3088,"Storm ":3089,"maximum ":3090," N":3091," Kershaw ":3092,"Aven":3093,"Bra":3094,"Dre":3095,"Early ":3096,"Ke":3097,"Lock":3098,"NK ":3099,"Tri":3100,"Ver":3101,"bus":3102,"barr":3103,"cert":3104,"frequ":3105,"foot":3106,"get ":3107,"mer":3108,"mir":3109,"member ":3110,"ra ":3111,"sal":3112,"squadron ":3113,"ve":3114,"’ ":3115,"ered the ":3116,"ed as a ":3117,"ats ":3118,"er 's ":3119,"es in the ":3120,"acit":3121,"was to ":3122,"eton":3123,"units ":3124,"ham ":3125,"change ":3126,"e , but ":3127,"inten":3128,"ies , ":3129,"ate the ":3130,"utive ":3131,"edit":3132,"Intern":3133,"point":3134,"poetry ":3135,"phas":3136,"comment":3137,"order ":3138,"pressur":3139,"Manch":3140,"would have ":3141,"center ":3142,"region ":3143,"artillery ":3144,"ccording to ":3145,"where he ":3146,"day , ":3147,"writing ":3148,"tanks ":3149,"ski ":3150,". On the ":3151,"manag":3152,"near the ":3153,"dren ":3154,"scene ":3155,"verte":3156,"Kingdom ":3157,"English ":3158,"Ab":3159,"Bel":3160,"Ex":3161,"Hung":3162,"Heavyweight ":3163,"Mor":3164,"Mir":3165,"MS ":3166,"Pound ":3167,"Sum":3168,"Sea ":3169,"domin":3170,"ek ":3171,"fess":3172,"hand ":3173,"hold ":3174,"hurricane ":3175,"loo":3176,"met ":3177,"ner ":3178,"rin":3179,"sess":3180,"top":3181,"vess":3182,"ther":3183,"infantry ":3184,"reported ":3185,"a few ":3186,"to have ":3187,"rom ":3188,"ilities ":3189,"is an ":3190,"or the ":3191,"or of ":3192,"amWor":3193,"amily ":3194,"emnospond":3195,"imped":3196," . D":3197,"by a ":3198,"chi":3199,"clear ":3200,"forward ":3201,"prog":3202,"strong":3203,"s . It ":3204,"portra":3205,"aver":3206,"brought ":3207,"control":3208,"pper ":3209,"186":3210,"187":3211,"prepar":3212,"who had ":3213,"minute ":3214,"decision ":3215,". By ":3216,"subj":3217,"subsequ":3218,"where the ":3219,"charact":3220,"selected ":3221,"invas":3222,"general ":3223,"eyman ":3224,"could be ":3225,"key ":3226,"small":3227,"archit":3228,"class ":3229,"remained ":3230,"significant ":3231,"pitcher ":3232,"complete ":3233,"southern ":3234,"boats ":3235,"young ":3236,"contract ":3237,"character":3238,"radio ":3239,"Emperor ":3240,"necess":3241,"pattern ":3242,"appointed ":3243,"International ":3244,"31 ":3245,"70 ":3246,"AG":3247,"Bost":3248,"Ca":3249,"Dü":3250,"Mal":3251,"Paul":3252,"dev":3253,"fit":3254,"fighting ":3255,"good ":3256,"led to ":3257,"me ":3258,"nation":3259,"sep":3260,"television ":3261,"ure":3262,"e 's ":3263,"thing ":3264,"thes":3265,". I":3266,"reb":3267,"reign ":3268,"ille ":3269,"of the Philippines ":3270,"happ":3271,"every ":3272,"usually ":3273,"ago ":3274,"distr":3275,"promin":3276,"compar":3277,"earch ":3278,"qual":3279,"sia ":3280,"see ":3281,"turn":3282,"illa ":3283,"debut ":3284,"defin":3285,"poem ":3286,"ogether ":3287,"contem":3288,"4 – ":3289,"has a ":3290,"aching ":3291,"him to ":3292,"upgrad":3293,"numb":3294,"build":3295,". Some ":3296,"before the ":3297,"became the ":3298,"invest":3299,"direct ":3300,"remaining ":3301,"pair ":3302,"USA ":3303,"yrin":3304,"University of ":3305,"various ":3306,"Australian ":3307,"eastward ":3308,"western ":3309,"community ":3310,"friend":3311,"particularly ":3312,"imeter ":3313,"training ":3314,"longer ":3315,"associated ":3316,"language ":3317,"Kirby ":3318,"Lockport ":3319,"Bog":3320,"Danu":3321,"East ":3322,"ERA ":3323,"Feder":3324,"Govern":3325,"Memor":3326,"Mich":3327,"Pet":3328,"Rifenburg ":3329,"Sm":3330,"Ul":3331,"V ":3332,"Victor":3333,"aw ":3334,"aiss":3335,"cruis":3336,"ith":3337,"ible ":3338,"moun":3339,"mouth ":3340,"nia ":3341,"uted ":3342,"yop":3343,"yli":3344,"inal ":3345,"ed into ":3346,"enough ":3347,"enemy ":3348,"on October ":3349,"ster":3350,"to his ":3351,"icop":3352,"an un":3353,"was un":3354,"\" The ":3355,"of the Year ":3356,"imental ":3357,"idg":3358,"that they ":3359,"che":3360,"chall":3361,"ripp":3362,"fort":3363,"exhib":3364,"sip":3365,"s . A":3366,"short ":3367,"Chur":3368,". An":3369,"Amb":3370,"side of the ":3371,"dissip":3372,"ance of ":3373,"Under ":3374,"priv":3375,"pract":3376,"most of the ":3377,"include ":3378,"marri":3379,"active ":3380,"Although ":3381,"ances ":3382,"beginning ":3383,"played ":3384,"helicop":3385,"a sing":3386,"season , ":3387,"below ":3388,"director ":3389,"talea ":3390,"since the ":3391,"Isra":3392,"km / h ( 1":3393,"laid ":3394,"week":3395,"oxid":3396,"distinc":3397,"advant":3398,"northern ":3399,"school":3400,"total ":3401,"tropical cyclone ":3402,"straight ":3403,"eventually ":3404,"children ":3405,"human ":3406,"Direc":3407,"Associ":3408,"piec":3409,"techniqu":3410,"Tropical Storm ":3411,"script ":3412,"approximately ":3413,"Memorial ":3414,"1 , the ":3415,"7 @.@ ":3416,"Emp":3417,"Hall ":3418,"Mel":3419,"On":3420,"Se":3421,"Sant":3422,"Scho":3423,"UT":3424,"bul":3425,"cou":3426,"dig":3427,"down":3428,"ek":3429,"eu":3430,"eed":3431,"eball ":3432,"gen ":3433,"grow":3434,"hull":3435,"jor":3436,"list ":3437,"oke ":3438,"told ":3439,"us and ":3440,"erous ":3441,", Lesnar ":3442,", who ":3443,"in 194":3444,"es a ":3445,"island ":3446,"ask ":3447,"ole ":3448,"ety ":3449," . On ":3450,"( T":3451,"uset":3452,"ention ":3453,"entire ":3454,"ching ":3455,"clus":3456,"sust":3457,"195":3458,"it the ":3459,"occur":3460,"tion of the ":3461,"tion = = \n":3462,"Stone ":3463,"andon":3464,"are the ":3465,"assach":3466,"not be ":3467,"works ":3468,"ordered ":3469,"aw , ":3470,"ob ":3471,"armour ":3472,"find ":3473,"upon ":3474,"sail":3475,"mater":3476,"about the ":3477,"charg":3478,"was the first ":3479,". With ":3480,"continued ":3481,"classifi":3482,"Conf":3483,"Olymp":3484,"winds ":3485,"approach ":3486,"larger ":3487,"resident ":3488,"Brig":3489,"can be ":3490,"others ":3491,"combat ":3492,"Angela ":3493,"episode ":3494,"duce ":3495,"Arjona ":3496,"Canad":3497,"nowmen ":3498,"Second ":3499,"oxaziridines ":3500,"ospital ":3501,"lack of ":3502,"Avenue ":3503,"amWorks ":3504,"characters ":3505,"separ":3506,"yrinthod":3507,"Michig":3508,"aissance ":3509,"assachuset":3510,".S":3511,"29 ":3512,"45 ":3513,"Cro":3514,"Civ":3515,"Cap":3516,"Dep":3517,"Hy":3518,"Hill ":3519,"High ":3520,"Jack":3521,"La ":3522,"Lab":3523,"Los ":3524,"Napol":3525,"Serv":3526,"Tra":3527,"astr":3528,"aid ":3529,"cu":3530,"daugh":3531,"got ":3532,"har":3533,"my ":3534,"non @-@ ":3535,"pen":3536,"sem":3537,"uel":3538,"vo":3539,"vic":3540,"thin":3541,", with ":3542,"ed , and ":3543,"argu":3544,"ator":3545,"atal":3546,"ativ":3547,"of which ":3548,"stag":3549,"ing his ":3550,"ion of the ":3551,"is , ":3552,"ecially ":3553,"ament ":3554,"plant ":3555,"idea ":3556,"conduc":3557,"his first ":3558,"super":3559,"ers of the ":3560,") = = = \n":3561,"ights ":3562,"strateg":3563,"spent ":3564,"out of the ":3565,"Chang":3566,"ains ":3567,"wealth ":3568,"worked ":3569,"formation ":3570,"two @-@ ":3571,"188":3572,"secur":3573,"army ":3574,"placed ":3575,"ministr":3576,"including the ":3577,"author":3578,"surround":3579,"depic":3580,"battal":3581,"up to ":3582,"supported ":3583,"Philippines , ":3584,"there were ":3585,"operation ":3586,"slightly ":3587,"ology ":3588,"request":3589,"does ":3590,"featur":3591,"crater ":3592,"ounty ":3593,"break":3594,"ereospond":3595,"organis":3596,"explos":3597,"Charles ":3598,"All @-@ ":3599,"likely ":3600,"Burn":3601,"as well as ":3602,"Clara ":3603,"especially ":3604,"launch":3605,"kilomet":3606,"Undertak":3607,"aquatic ":3608,"Boston ":3609,"a single ":3610," 's ":3611,"28 ":3612,"300 ":3613,"65 ":3614,"Air":3615,"Camp":3616,"Dr":3617,"Gal":3618,"Gra":3619,"Hol":3620,"One ":3621,"P ":3622,"Petr":3623,"Si":3624,"band":3625,"c . ":3626,"ez":3627,"fut":3628,"ifor":3629,"low ":3630,"mother ":3631,"ments ":3632,"nine ":3633,"pic":3634,"pain":3635,"song":3636,"sold ":3637,"tl":3638,"tet":3639,"ts , ":3640,"wom":3641,"o and ":3642,"repl":3643,"reduc":3644,"enth ":3645,"on July ":3646,"in an ":3647,"in their ":3648,"outs ":3649,"ing of the ":3650,"itts ":3651,"els ":3652,"iss ":3653,"is located ":3654,"asked ":3655," . B":3656,"whose ":3657,"plan ":3658,"ultim":3659,"agg":3660,"for its ":3661,"died ":3662,"abandon":3663,"ers of ":3664,"from his ":3665,"Stra":3666,"season":3667,"all the ":3668,"spea":3669,"major":3670,"s . \" ":3671,"deploy":3672,"possib":3673,"2007 ":3674,"bodi":3675,"Amos ":3676,"despite ":3677,"renstein ":3678,"2011 ":3679,"at the time ":3680,"Lesnar 's ":3681,"viol":3682,"minut":3683,"monum":3684,"created ":3685,"declar":3686,"enced ":3687,"coast ":3688," SM ":3689,"Mark ":3690,"ectively ":3691,"These ":3692,"accep":3693,"United Kingdom ":3694,"War Office ":3695,"trav":3696,"Germany ":3697,"release ":3698,"referr":3699,"attacked ":3700,"highly ":3701,"evacuation ":3702,"Provis":3703,"popular ":3704,"pursu":3705,"performance ":3706,". Although ":3707,"Monument ":3708,"Califor":3709,"surviving ":3710,"favor":3711,"Agripp":3712,"Schmit":3713,"returned to ":3714,"circul":3715,"power":3716,"currently ":3717,"leave ":3718,"ASA ":3719,"Donald ":3720,"measures ":3721,"supplies ":3722,"immediately ":3723,"throughout the ":3724,"Domitian ":3725,"busin":3726,"contemporary ":3727,"Israel ":3728,"sustained ":3729,"Los Angel":3730,"daughter ":3731," Manila ":3732,"Bill":3733,"Bishop ":3734,"CAA ":3735,"Free ":3736,"Mountain ":3737,"President ":3738,"Sc":3739,"Tur":3740,"b ":3741,"ba":3742,"bill":3743,"cut ":3744,"here ":3745,"led the ":3746,"lower ":3747,"mul":3748,"ner":3749,"nit":3750,"ser":3751,"site ":3752,"tion":3753,"ties ":3754,"anal":3755,"ed as the ":3756,"ed into the ":3757,". K":3758,"real":3759,"ating the ":3760,"on August ":3761,"on May ":3762,"on June ":3763,"es are ":3764,"road":3765,"islat":3766,"ess , ":3767,"eman ":3768," . A ":3769,"unn":3770,"plan":3771,"event ":3772,"idae ":3773,"agu":3774,"open ":3775,"rain ":3776,"fore":3777,"ap ":3778,"quar":3779,"perc":3780,"e of a ":3781,"e of his ":3782,"edical ":3783,"assaul":3784,"neg":3785,"2006 ":3786,"times ":3787,"ed in a ":3788,"bran":3789,"bridge ":3790,"contribu":3791,"press":3792,"minim":3793,"istic ":3794,"move ":3795,"headquart":3796,"help":3797,"British Army ":3798,"produced ":3799,"additional ":3800,"quadron":3801,"Guam ":3802,"UB ":3803,"150 ":3804,"km / h ( ":3805,"grav":3806,"detail":3807,"positive ":3808,"generally ":3809,"Imagist ":3810,"Imagism ":3811,"rapod":3812,"situ":3813,"across ":3814,"Museo ":3815,"living ":3816,"setting ":3817,"leaving ":3818,"Young ":3819,"youngest ":3820,"impedance ":3821," C":3822," K":3823,"12":3824,"400 ":3825,"90 ":3826,"9 @.@ ":3827,"Dv":3828,"Down ":3829,"F @-@ ":3830,"Her":3831,"Mil":3832,"Rev":3833,"The":3834,"U.S":3835,"Vel":3836,"You":3837,"bi":3838,"bot":3839,"dic":3840,"manu":3841,"ny":3842,"tar":3843,"tive ":3844,"ualt":3845,"ville ":3846,"wan ":3847,"yet ":3848,"e . \n":3849,"s is ":3850,"erpet":3851,"ino ":3852,"ed their ":3853,"orated ":3854,"orts ":3855,"always ":3856,"report ":3857,"enant ":3858,"icad":3859,"itions ":3860,"es ( ":3861,"ace":3862,"ison ":3863,"ectr":3864,"\" a ":3865,"\" . The ":3866,"unk ":3867,"chas":3868,"championship ":3869,"with an ":3870,"consec":3871,"in the city ":3872,"open":3873,"oppos":3874,"supp":3875,"respond":3876,"ers in ":3877,"person ":3878,"leMan":3879,"had to ":3880,"weigh":3881,"overall ":3882,"2012 , ":3883,"ize ":3884,"izal ":3885,"Common":3886,"filter ":3887,"they are ":3888,"moved to the ":3889,"office ":3890,"regimental ":3891,"based on ":3892,"structure ":3893,"airborne ":3894,"help ":3895,"nament ":3896,"year , ":3897,"compound ":3898,"known as the ":3899,"Bintulu":3900,"Colossal ":3901,"Spain ":3902,"such as the ":3903,"brok":3904,"skull":3905,"album , ":3906,"convection ":3907,"discus":3908,"Island ":3909,"Island":3910,"Franc":3911,"allowed ":3912,"may be ":3913,"Infantry Division ":3914,"status ":3915,"cemetery ":3916,"westward ":3917,"strength ":3918,"figure ":3919,"oulter ":3920,"WrestleMan":3921,"ynast":3922,"activity ":3923,"campaign ":3924,"prevent ":3925,"England ":3926,"Independiente ":3927,"barricad":3928,"vertebra":3929,"necessary ":3930,"AGASA ":3931,"assachusetts ":3932,"Croat":3933,"California ":3934,"Commonwealth ":3935,"11":3936,"35 ":3937,"75 ":3938,"Air ":3939,"Ba":3940,"BC ":3941,"Distr":3942,"Ez":3943,"H ":3944,"HMS ":3945,"Heyman ":3946,"II ":3947,"IRA ":3948,"Jack ":3949,"Jane ":3950,"Jim ":3951,"Leg":3952,"Vent":3953,"West":3954,"ez ":3955,"far ":3956,"fall":3957,"fund":3958,"hill":3959,"ju":3960,"look ":3961,"lyr":3962,"mad":3963,"mos":3964,"ness ":3965,"oid ":3966,"past ":3967,"ridge ":3968,"sor":3969,"spl":3970,"search ":3971,"tures ":3972,"together ":3973,"wall":3974,"winn":3975,"wards ":3976,"yl ":3977,"zz":3978,"s from ":3979,"d , ":3980,"ana ":3981,"ed at the ":3982,"als , ":3983,"and his ":3984,"er the ":3985,"in @-@ ":3986,"ing it ":3987,"ic , ":3988,"icle ":3989,"ittle ":3990,"as it ":3991,"acey ":3992,"is not ":3993,"escap":3994,"espite ":3995,"ash ":3996,"ecting ":3997," , a ":3998,"was releas":3999,"amoun":4000,"adish":4001,"eter":4002," . F":4003,"for Best ":4004,"confl":4005,"conclud":4006,"consul":4007,"conspir":4008,"propos":4009,"league ":4010,"ts of ":4011,"andy ":4012,"utenant ":4013,"otilla ":4014,". As ":4015,". At the ":4016,"ings , ":4017,"deep":4018,"aining ":4019,"poem":4020,"ogadish":4021,"term":4022,"2012":4023,"2015 , ":4024,"180":4025,"ization ":4026,"later , ":4027,"obj":4028,"ards the ":4029,"armoured ":4030,"who was ":4031,"anti @-@ ":4032,"meant ":4033,"temper":4034,"ections ":4035,"ortly ":4036,"landing ":4037,"landfall ":4038,"groups ":4039,"capital ":4040,". While ":4041,"slow":4042,"back to ":4043,"weapon":4044,"ships were ":4045,"said that ":4046,"arrang":4047,"disturb":4048,"advanc":4049,"break ":4050,"passed ":4051,"next day ":4052,"mph ) ":4053,"half @-@ ":4054,"represent ":4055,"music video ":4056,"Battalion , ":4057,"suffered ":4058," . After ":4059,"Center ":4060,"Central ":4061,"Corps ":4062,"World War II":4063,"Sueton":4064,"Film ":4065,"Filip":4066,"ography ":4067,"23rd ":4068,"Northern ":4069,"rock ":4070,"Lieutenant ":4071,"extrat":4072,"literary ":4073,"sourc":4074,"machine ":4075,"problems ":4076,"Sarawak ":4077,"magazine ":4078,"achiev":4079,"Manchester ":4080,"average ":4081,"Dürenstein ":4082,"prominent ":4083,"Stone S":4084,"Changny":4085,"ultimately ":4086,"Free Derry ":4087,"billion ":4088,"Colossal Head ":4089,"Changnyong ":4090,"38":4091,"600 ":4092,"85 ":4093,"AR":4094,"Ben":4095,"Bert ":4096,"Eli":4097,"Ire":4098,"Raw , ":4099,"Rizal ":4100,"Sl":4101,"Sou":4102,"WG":4103,"ban":4104,"bad":4105,"co ":4106,"cover ":4107,"crow":4108,"ean":4109,"fo":4110,"her":4111,"ham":4112,"hold":4113,"ib":4114,"metr":4115,"mix":4116,"nar":4117,"nearly ":4118,"natur":4119,"oon":4120,"oth ":4121,"pot":4122,"pass ":4123,"ran ":4124,"sought ":4125,"upper ":4126,"wound":4127,"winning ":4128,"e . The ":4129,"the most ":4130,", including ":4131,"ories ":4132,"read ":4133,"restrial ":4134,"of T":4135,"of @-@ ":4136,"a . The ":4137,"a number of ":4138,"on his ":4139,"ston":4140,"staff ":4141,"ing with ":4142,"es , the ":4143,"eless ":4144,"econom":4145,"omas ":4146,"imin":4147," . \" ":4148,"everal ":4149,"( 199":4150,"ush ":4151,"opening ":4152,"profess":4153,"rest of the ":4154,"abov":4155,"appar":4156,"e , which ":4157,"eph":4158,"ic and ":4159,"see":4160,"allow ":4161,"turn ":4162,"ally , ":4163,"ude ":4164,"pool ":4165,"poems ":4166,"ia and ":4167,"2013 ":4168,"ension ":4169,"finish":4170,"astal ":4171,"teeth ":4172,"a small ":4173,"city 's ":4174,"became a ":4175,"Col. F":4176,"ondo ":4177,"directed by ":4178,"brother ":4179,"great":4180,"Club":4181,"innings ":4182,"well @-@ ":4183,"km / h ) ":4184,"National League ":4185,"attacks ":4186,"long ton":4187,"pitched ":4188,"aftern":4189,"population ":4190,"Coal":4191,"attempted to ":4192,"may have ":4193,"relig":4194,"Acad":4195,"amphibians ":4196,"total of ":4197,"divid":4198,"Geor":4199,"Wrestling ":4200,"prior ":4201,"decided to ":4202,"strikeouts ":4203,"( CR ":4204,"Tetrarchs ":4205,"Baseball ":4206,"Mexico ":4207,"every":4208,"torpedo ":4209,"Type UB ":4210,"Triple ":4211,"’ s ":4212,"intensifi":4213,"Danube ":4214,"Church ":4215,"Ambassador ":4216,"UTC ":4217,"Michigan ":4218,"Civil ":4219,"multi":4220,"consecutive ":4221,"supply ":4222,"extratropical ":4223,"Ireland ":4224,"afternoon ":4225," Th":4226,"75":4227,"96 ":4228,"Cour":4229,"Luz":4230,"O ":4231,"PAGASA ":4232,"Som":4233,"T ":4234,"Tr":4235,"Tre":4236,"UN ":4237,"Zap":4238,"ahead ":4239,"date ":4240,"find":4241,"hund":4242,"lies ":4243,"mort":4244,"most":4245,"ring ":4246,"tax":4247,"uel ":4248,"voc":4249,"win the ":4250,"way":4251,"ūg":4252,"erted ":4253,"inforc":4254,", in ":4255,"onn":4256,"a M":4257,"env":4258,"and was ":4259,"in T":4260,"in its ":4261,"in early ":4262,"iting ":4263,"as , ":4264,"elected ":4265,"electr":4266,"at number ":4267,"or and ":4268,"ask":4269,"\" ( ":4270,"embl":4271,"@-@ load":4272,"ety of ":4273,"improv":4274," . M":4275,"unt ":4276,"univers":4277,"that was ":4278,"s , a ":4279,"const":4280,"raid":4281,"clou":4282,"forec":4283,"expos":4284,"ress ":4285,"above ":4286,"ation in ":4287,"trough ":4288,"ated to ":4289,"ts to ":4290,", and was ":4291,"sific":4292,"sea ":4293," = = D":4294,"umb":4295,"s . F":4296,"ture of ":4297,", the storm ":4298,"edul":4299,"1 – ":4300,"2003 ":4301,"2008 , ":4302,"flow":4303,". Two ":4304,"A Company ":4305,"term ":4306,"common ":4307,"Union ":4308,"indu":4309,"ordin":4310,"order to ":4311,"financ":4312,": 00 ":4313,"crew":4314,"deck ":4315,"rose ":4316,"guit":4317,"three @-@ ":4318,"battalion ":4319,"up the ":4320,"than the ":4321,"playing ":4322,"submar":4323,"film 's ":4324,"colon":4325,"ranked ":4326,". Mendes ":4327,"descend":4328,"along with ":4329,"required ":4330,"trial ":4331,"ification ":4332,". On":4333,"casualt":4334,"because of ":4335,"resulting ":4336,"result of ":4337,"designated ":4338,"ampionship":4339,"efly ":4340,"higher ":4341,"cyclone ":4342," Family ":4343,"critical ":4344,"revol":4345,"successfully ":4346,"due to the ":4347,"somet":4348,"hydro":4349,"expected ":4350,"defeat ":4351,"relation":4352,"provide ":4353,"mm ( ":4354,"limited ":4355,"commander ":4356,"Dodger ":4357,"Royal Navy ":4358,"Attalea ":4359,"speech ":4360,"personn":4361,"traditional ":4362,"turret ":4363,"Du Fu 's ":4364,"Tai":4365,"th century ":4366,"Histor":4367,"Weev":4368,"owever , the ":4369,"DreamWorks ":4370,"smaller ":4371,"Empire ":4372,"Graves ":4373," SM UB @-@ ":4374,"Billboard ":4375,"Dvor":4376,"WrestleMania ":4377,"Venta ":4378,"Manchester United ":4379,"Coalition ":4380,"George ":4381,"mostly ":4382,"37 ":4383,"98 ":4384,"Bar":4385,"DI":4386,"Gold":4387,"Hor":4388,"Hen":4389,"Ki":4390,"Kiss ":4391,"Min":4392,"Massachusetts ":4393,"NG":4394,"N @-@ ":4395,"Pop":4396,"Tank ":4397,"bir":4398,"bank ":4399,"cov":4400,"day":4401,"driv":4402,"dynast":4403,"eor":4404,"eel":4405,"far":4406,"fast ":4407,"go ":4408,"iber":4409,"lack":4410,"level":4411,"leng":4412,"mas ":4413,"mel":4414,"middle ":4415,"pap":4416,"pay ":4417,"rup":4418,"sus":4419,"sex":4420,"tain ":4421,"uk":4422,"vot":4423,"via ":4424,"wit":4425,"ed from the ":4426,". V":4427,"onic ":4428,"ators ":4429,"of these ":4430,"ens ":4431,"on its ":4432,"on November ":4433,"ing him ":4434,"itom":4435,"itive ":4436,"ili":4437,"acqu":4438,"an @-@ ":4439,"eld":4440,"ised ":4441,"th Division ":4442,"asp":4443,"\" was ":4444,"emphas":4445,"@-@ like ":4446,"impl":4447,"habit":4448,"entr":4449,"with his ":4450,"cong":4451,"ram ":4452,"ovi":4453,"clear":4454,"suit":4455,"beat ":4456,"promo":4457,"promot":4458,"ation ( ":4459,"ted , ":4460,") was ":4461,"try , ":4462,"all @-@ ":4463,"s . D":4464,"s . On ":4465,"ary , ":4466,"edly ":4467,"educ":4468,"deb":4469,"debu":4470,"possess":4471,"storm":4472,"terrestrial ":4473,"2010 , ":4474,"sector ":4475,"feel":4476,"7 million ":4477,"after a ":4478,"res Zap":4479,"ellite ":4480,"award":4481,". He also ":4482,"finished ":4483,"surface ":4484,"ancient ":4485,"fact ":4486,"depar":4487,"lock ":4488,"based ":4489,"outside the ":4490,"start ":4491,"head was ":4492,"Korea ":4493,"interpre":4494,"party ":4495,"developed ":4496,"genus ":4497,"both the ":4498,"complex ":4499,"there are ":4500,"incip":4501,"down the ":4502,"Park ":4503,"temnospondyls , ":4504,"result ":4505,"feature ":4506,"Show ":4507,"Mah":4508,"self @-@ ":4509,"highway ":4510,"oldest ":4511,"gram ":4512,"Austro @-@ ":4513,"going ":4514,"position":4515,"Produc":4516,"group of ":4517,"town of ":4518,"house ":4519,"some":4520,"half of the ":4521,"peaked ":4522,"purchas":4523,"equipp":4524,"ustler ":4525,"century ":4526,"carriers ":4527,"mm ) ":4528,"9th Infantry ":4529,"athlet":4530,"influenc":4531,"command of ":4532,"civil ":4533,"poetic ":4534,"projects ":4535,"battleships ":4536,"telligence ":4537,"painting ":4538,"Africa ":4539,"wind sh":4540,"responsible for ":4541,"Claudius ":4542,"low @-@ ":4543,"rabb":4544,"Mortier ":4545,"propell":4546,"Veron":4547,"veh":4548,"penetr":4549,"future ":4550,"Col. Fitts ":4551,"res Zapot":4552,"\" , and ":4553,"Beth ":4554,"Chi":4555,"CR ":4556,"Day ":4557,"Four ":4558,"Jenn":4559,"Kros":4560,"Ob":4561,"Ross":4562,"Rock ":4563,"Sal":4564,"Sur":4565,"Series ":4566,"cel":4567,"cav":4568,"don":4569,"den ":4570,"eum ":4571,"found":4572,"gas ":4573,"give ":4574,"gard":4575,"ip ":4576,"kron ":4577,"live ":4578,"law":4579,"ris":4580,"rate ":4581,"ruc":4582,"test":4583,"tain":4584,"van":4585,"von ":4586,"vent":4587,"well":4588,"ym":4589,"yst":4590,"é ":4591,"s to the ":4592,"t 's ":4593,"inch ":4594,"ed . The ":4595,"orid":4596,"aries ":4597,"ret ":4598,"real ":4599,"rear ":4600,"reach ":4601,"remov":4602,"reinforc":4603,"ata ":4604,"a new ":4605,"enge ":4606,"stand ":4607,"states ":4608,"in and ":4609,"ing \" ":4610,"to its ":4611,"icient ":4612,"itself ":4613,"as his ":4614,"es on ":4615,"th @-@ ":4616,"esc":4617,"ess of ":4618,"\" [ ":4619,"ima ":4620,"plex":4621,"plain ":4622,"( 4":4623,"using the ":4624,"ages ":4625,"entire":4626,"that of ":4627,"that were ":4628,"in the Philippines ":4629,"clad":4630,"fore ":4631,"proper":4632,"produce ":4633,"epend":4634,"attach":4635,"occas":4636,"ity of the ":4637,"perimeter ":4638,"sports ":4639,"s . S":4640,"ayn":4641,"ota ":4642,"shell":4643,"shoot":4644,"turning ":4645,"turned ":4646,"port of ":4647,"edge ":4648,". Am":4649,". According to ":4650,"deal ":4651,"degre":4652,"heir ":4653,"2008 ":4654,"2009 ":4655,"Intelligence ":4656,". To ":4657,"scor":4658,"score ":4659,"side , ":4660,"2013":4661,"' Squadron ":4662,"commiss":4663,"189":4664,"independ":4665,"achitom":4666,"present":4667,"knots ":4668,"finally ":4669,"care":4670,"crew ":4671,"moving ":4672,"Albu":4673,"regard":4674,"base ":4675,". She ":4676,"players ":4677," Su":4678,"a series ":4679,"column ":4680,"college ":4681,"head coach ":4682,"following the ":4683,"returned ":4684,"choice ":4685,"warships ":4686,"Spec":4687,"Spacey ":4688,"keep":4689,"in 196":4690,"Parth":4691,"back of the ":4692,"15 , ":4693,"polic":4694,"high @-@ ":4695,"law ":4696,"highest ":4697,"peopl":4698,"ations , ":4699,"USS ":4700,"increasing ":4701,"mph ) , ":4702,"John":4703,"drum":4704,"someth":4705,"excav":4706,"allowing ":4707,"sequence ":4708,"patrol":4709,"Admir":4710,"audience ":4711,"ashington ":4712,"episode of ":4713,"Christmas ":4714," . This ":4715,". All ":4716,"unction ":4717,"influence ":4718,"demand":4719,"ercial ":4720,"Offic":4721,"schedul":4722,"village ":4723,"weaken":4724,"threat ":4725,"Bacon 's ":4726,"experience ":4727,"intended to ":4728,"briefly ":4729,"Osbert ":4730,"tournament ":4731,"drawn ":4732,"months ":4733,"double ":4734,"Bulg":4735,"victory ":4736,"intervi":4737,"Hungarian ":4738,"Victoria ":4739,"Brigade ":4740,"tetrapod":4741,"broken ":4742,"Air Force ":4743,"District ":4744,"Ezra ":4745,"sometimes ":4746,"Dvorak ":4747,"incipal ":4748,"Austro @-@ Hungarian ":4749,"entirely ":4750," Lesnar ":4751,"30":4752,"62 ":4753,"Akron ":4754,"Bull":4755,"County ":4756,"Dio ":4757,"Eg":4758,"Fran":4759,"Final ":4760,"IJ":4761,"Jul":4762,"Kid":4763,"NCAA ":4764,"Pas":4765,"Snowmen ":4766,"TAR":4767,"Tres Zapot":4768,"VII":4769,"bones ":4770,"cle ":4771,"cus ":4772,"cast":4773,"dn ":4774,"dog":4775,"free ":4776,"ge":4777,"hard ":4778,"hospital ":4779,"lear":4780,"mur":4781,"mid":4782,"might ":4783,"mine ":4784,"net":4785,"near":4786,"ople ":4787,"pick":4788,"pound":4789,"re ":4790,"rough ":4791,"she was ":4792,"sound":4793,"ting the ":4794,"wa":4795,"zqu":4796,"ázqu":4797,"thqu":4798,", it ":4799,"ed P":4800,"ed with a ":4801,"alry ":4802,"red":4803,"really ":4804,"reconn":4805,"of its ":4806,"enh":4807,"enous ":4808,"stage ":4809,"elements ":4810,"isol":4811,"isions ":4812,"at 0":4813,"th and ":4814,"urong ":4815,"emerg":4816,"en 's ":4817,"adium ":4818,"imil":4819,"idly ":4820,"used the ":4821,"agog":4822,"that is ":4823,"that had ":4824,"champion ":4825,"his own ":4826,"rif":4827,"ation was ":4828,"ers . The ":4829,"coming ":4830,"it , ":4831,"e , a ":4832,"ated in ":4833,"seem":4834,"seed":4835," = = \n":4836,"oday ":4837,"utuz":4838,"ture , ":4839,"edition ":4840,"ingu":4841,"deep ":4842,"Indu":4843,"ogen":4844,"gran":4845,"phot":4846,"commit":4847,"order":4848,"pread ":4849,". In addition ":4850,"actions ":4851,"mean":4852,"encoun":4853,"1942 , ":4854,"artist ":4855,"( 1 @.@ ":4856,"servic":4857,"chart ":4858,") . He ":4859,"interest ":4860,"accoun":4861,"according to ":4862,"historian ":4863,"historians ":4864,"continue ":4865,"some of the ":4866,"operated ":4867,"German":4868,"broke ":4869,". Most ":4870,". For ":4871,"counter":4872,"skull ":4873,"requir":4874,". Other ":4875,". During ":4876,"Edward ":4877,"death":4878,"heavily ":4879,"What ":4880,"per hour ":4881,"completely ":4882,"[ ... ":4883,"extrem":4884,"Nerva 's ":4885,"scenes ":4886,"although the ":4887,"effects ":4888,"east of ":4889," During the ":4890,"variety of ":4891,"responsib":4892,"protection ":4893,"replaced by ":4894,"miles per hour ":4895,"collap":4896,"rapidly ":4897,"initial ":4898,"contrast ":4899,"joined ":4900,"atre ":4901,"No. 20 ":4902,"members of the ":4903,"Record":4904,"strength":4905,"earliest ":4906,"to get ":4907,"primary ":4908,"Newman ":4909,"prevent":4910,"among the ":4911,"copies ":4912,"Robert ":4913,"impact ":4914,"conference ":4915,"freed":4916,"political ":4917,"wrestling ":4918,"relief ":4919,"noted ":4920,"individual ":4921,"families ":4922,"football ":4923,"vessel":4924,"emnospondyli":4925,"rebell":4926,"investig":4927,"helicopters ":4928,"ereospondyl":4929,"Undertaker ":4930,"favorable ":4931,"Los Angeles ":4932,"idae \n":4933,"Velázqu":4934,"You \" ":4935,"conflict ":4936,"Kiss You \" ":4937,"Mahon ":4938,"TARDI":4939,"utuzov":4940,"32 ":4941,"3rd ":4942,"8 . ":4943,"Asia ":4944,"Be":4945,"Bran":4946,"De":4947,"Ear":4948,"Fland":4949,"Il":4950,"Jo":4951,"Kou":4952,"Kem":4953,"Light ":4954,"Mic":4955,"Mad":4956,"Other ":4957,"Pe":4958,"Pre":4959,"Pus":4960,"Port ":4961,"Tem":4962,"Tacit":4963,"ail ":4964,"ben":4965,"cer":4966,"cit":4967,"eont":4968,"fast":4969,"food ":4970,"hr":4971,"hard":4972,"hachitom":4973,"ither ":4974,"jour":4975,"ks and ":4976,"ld":4977,"lev":4978,"pan":4979,"sil":4980,"squadron":4981,"tav":4982,"tact":4983,"u , ":4984,"vir":4985,"ya ":4986,"án ":4987,"s \" ":4988,"s ) ":4989,"thy ":4990,"inhabit":4991,", S":4992,", while ":4993,"ed him ":4994,"ed off ":4995,"y 's ":4996,". I ":4997,"ared ":4998,"altern":4999,"restor":5000,"of their ":5001,"a @-@ ":5002,"step":5003,"stead ":5004,"stant":5005,"stating ":5006,"stood ":5007,"stones ":5008,"in this ":5009,"in May ":5010,"ing an ":5011,"to make ":5012,"es to the ":5013,"an and ":5014,"element ":5015,"at UFC ":5016,"asc":5017,"\" . He ":5018,"employ":5019,"olution ":5020,"@-@ of @-@ ":5021,"adul":5022,"wides":5023,"unte":5024,"ulner":5025,"ides ":5026,"( H":5027,"by 1 @.@ ":5028,"that it ":5029,"for their ":5030,"s , including ":5031,"rior ":5032,"progr":5033,"promis":5034,"reserv":5035,"reserve ":5036,"appl":5037,"approv":5038,"it to ":5039,"lied ":5040,"ffal":5041,"uck ":5042,"spac":5043,"ander":5044,"which he ":5045,"ayl":5046,"allery ":5047,"Chic":5048,", the first ":5049,"porting ":5050,"; it ":5051,"edg":5052,"shipp":5053,"health ":5054,"first time ":5055,"poor ":5056,"2 – ":5057,"boat ":5058,"word ":5059,"world":5060,"ifi":5061,"scal":5062,"termin":5063,"2011":5064,"formul":5065,"block ":5066,"display ":5067,"ackDown ":5068,"ording to the ":5069,"this time ":5070,"after his ":5071,"ishing ":5072,"Another ":5073,"Anton":5074,"armed ":5075,"armament ":5076,"know":5077,": the ":5078,"minor ":5079,"march ":5080,"marked ":5081,"monsoon ":5082,"actor ":5083,"auro":5084,"hill ":5085,"create ":5086,"meth":5087,"severe ":5088,"decorated ":5089,"offensive ":5090," , the JMA ":5091,"1942 ":5092,"regular ":5093,"coaching ":5094,"article ":5095,"specul":5096,". Both ":5097,"Marine ":5098,"ectiv":5099,"city of ":5100,"made his ":5101,"ed on a ":5102,"history of ":5103,"could not ":5104,"success ":5105,"request ":5106,". One ":5107,"in 195":5108,"in 197":5109,"defense ":5110,"southeast ":5111,"long @-@ ":5112,", which was ":5113," On the ":5114,"distingu":5115,"advance ":5116,"Company , ":5117,"breech ":5118,"largely ":5119,"legislat":5120,"Road ( CR ":5121,"install":5122,"reveal":5123," . He was ":5124,"except ":5125,"towards the ":5126,"Play":5127,"deriv":5128,"relatively ":5129,"Prince ":5130,"Christian ":5131,"joined the ":5132," . They ":5133,"atrach":5134,"amphibian":5135,"Florid":5136,"000":5137,"treat":5138,"friend ":5139,"personal ":5140,"Arjona 's ":5141,"transpor":5142,"transport ":5143,"particular ":5144,"Meteor":5145,"difficult ":5146,"Buffal":5147,"synthes":5148,"synagog":5149,"Lieber ":5150,"combined ":5151,"widely ":5152,"intersection ":5153,"Gazan ":5154,"Museum of ":5155,"Cassi":5156,"nominated ":5157,"pressure ":5158,"Heavyweight Champion ":5159,"subsequently ":5160,"separate ":5161,"La Venta ":5162,"does not ":5163,"Provisional ":5164,"Western ":5165,"Stone Sour ":5166,"badly ":5167,"greatest ":5168,"Luzon ":5169,"Beth Israel ":5170,"Krosa ":5171,"commission":5172,"something ":5173,"No. 20 Squadron ":5174,"eontolog":5175,"widespread ":5176," ( ":5177," Gore ":5178,"1 @,@ 000 ":5179,"29":5180,"34 ":5181,"6th ":5182,"64 ":5183,"78 ":5184,"7 @,@ ":5185,"95 ":5186,"Award":5187,"Bh":5188,"Bre":5189,"Back":5190,"Cong":5191,"Catal":5192,"East":5193,"Gam":5194,"Gid":5195,"Hon":5196,"Ham":5197,"Hous":5198,"Hustler ":5199,"Lou":5200,"Low":5201,"Mas":5202,"Mur":5203,"No ":5204,"Piz":5205,"Ros":5206,"Shi":5207,"SS ":5208,"Tex":5209,"T @-@ ":5210,"TV ":5211,"West ":5212,"Washington ":5213,"You ":5214,"aid":5215,"cat":5216,"fant":5217,"gir":5218,"hou":5219,"hits ":5220,"iated ":5221,"job ":5222,"kin":5223,"lay ":5224,"mian ":5225,"medical ":5226,"q ":5227,"sens":5228,"youth ":5229,"s at ":5230,"s @-@ ":5231,"s ' ":5232,"there":5233,"the @-@ ":5234,"the film ":5235,", M":5236,", or ":5237,". J":5238,". Manila ":5239,"along":5240,"refl":5241,"removed ":5242,"a R":5243,"a , the ":5244,"a de ":5245,"on 't ":5246,"stereospondyl":5247,"in July ":5248,"ing them ":5249,"to s":5250,"icated ":5251,"es with ":5252,"es ' ":5253,"es = = = \n":5254,"acted ":5255,"elt":5256,"eles":5257,"election ":5258,"iser ":5259,"is now ":5260,"ecaus":5261,"@-@ n":5262,"etor":5263,"etic ":5264,"osen ":5265,"osauro":5266,"imm":5267,"unit":5268,"plom":5269,"( B":5270,"( S":5271,"uses ":5272,"entered ":5273,"ched ":5274,"in the first ":5275,"clim":5276,"superi":5277,"ford ":5278,"exper":5279,"were not ":5280,"program ":5281,"frog":5282,"e , he ":5283,"quest":5284,"estiv":5285,"let ":5286,"sian ":5287,"main":5288,"mast":5289,"firm":5290,"recent ":5291,"shor":5292,". As a ":5293,"neither ":5294,"3 million ":5295,"2009 , ":5296," The first ":5297,"scale ":5298,"2011 , ":5299,"2013 , ":5300,"bloc":5301,"have a ":5302,"4 and ":5303,"6 – ":5304,"August":5305,"orders ":5306,"ized the ":5307,"award ":5308,"would not ":5309,"carv":5310,"actually ":5311,"throne ":5312,"numerous ":5313,"cost":5314,"coastal ":5315,"team":5316,"1999 ":5317,"made a ":5318,"starting ":5319,"capit":5320,"norm":5321,"returning ":5322,"son , ":5323,"directly ":5324,"no longer ":5325,"countri":5326,"fantry , ":5327,"engin":5328,"called the ":5329,"grew ":5330,"appears ":5331,"innes":5332,"convers":5333,"convinc":5334,"converted ":5335,"in 198":5336,"moder":5337,". During the ":5338,"case ":5339,"said , \" ":5340,"defensive ":5341,"approach":5342,"passing ":5343,"glid":5344,"ichard ":5345,"attempt to ":5346,"1969 ":5347,"residential ":5348,"Qui":5349,"sufficient ":5350,"View ":5351,"Vienn":5352,"considerable ":5353,"ft ) high ":5354,"Permian ":5355,"1st Battalion ":5356,"Flotilla ":5357,"rule ":5358,"chae":5359,"child ":5360,"maintain":5361,"Naktong River ":5362,"aught ":5363,"court ":5364,"standing ":5365,"screen ":5366,"close to ":5367,"strikeout ":5368,"felt that ":5369,"make the ":5370,"headdress is ":5371,"dark ":5372,"History ":5373,"opping ":5374,"Republican ":5375,"valu":5376,"mbol":5377,"student ":5378,"should be ":5379,"monitor":5380,"Brooke ":5381,"sixth ":5382,"determin":5383,"Gazan 's ":5384,"wife ":5385,"respectively ":5386,"satis":5387,"Big Show ":5388,"existing ":5389,"effort ":5390,"Summer ":5391,"thermor":5392,"Malay":5393,"fitted ":5394,"television series ":5395,"Federalist ":5396,". Another ":5397,"private ":5398,"technique ":5399,"yrinthodont":5400,"Napoleon ":5401,"referred to ":5402,"powerful ":5403,"nitro":5404,"U.S. ":5405,"manufac":5406,"vertebrae ":5407,"Croatian ":5408,"made the ":5409,"mosph":5410,"Northern Ireland ":5411,"natural ":5412,"professional ":5413,"above the ":5414,"Academy ":5415,"Type UB I ":5416,"environ":5417,"cloud ":5418,"financial ":5419,"personnel ":5420,"Henry ":5421,"congreg":5422,"a series of ":5423,"Egyp":5424,"Kidurong ":5425,"reconnaissance ":5426,"[ ... ] ":5427,"Pusan ":5428,"level ":5429,"method ":5430,"Cassius ":5431," Stevens ":5432," When ":5433,"- ":5434,".D":5435,".5 ":5436,"2 @-@ ":5437,"24 , ":5438,"40":5439,"4 @,@ ":5440,"55 ":5441,"Ath":5442,"Boulter ":5443,"Cr":5444,"Counc":5445,"D ) ":5446,"El ":5447,"Fats ":5448,"Gul":5449,"Game ":5450,"Hg ":5451,"Home ":5452,"Iron":5453,"Mast":5454,"Pi":5455,"Pic":5456,"Rum":5457,"Sdn ":5458,"Tayl":5459,"Vastr":5460,"While ":5461,"Zrin":5462,"aer":5463,"doc":5464,"draft ":5465,"dington ":5466,"fres":5467,"hit":5468,"hull ":5469,"iate ":5470,"ix ":5471,"ield ":5472,"ligh":5473,"mass":5474,"m2 ":5475,"mount":5476,"pun":5477,"squ":5478,"sound ":5479,"says ":5480,"vulner":5481,"wel":5482,"s him ":5483,"throw":5484,"n 't ":5485,"erly ":5486,"erce ":5487,"the following ":5488,"int ":5489,"instruc":5490,"inHg ":5491,", with the ":5492,"ed them ":5493,"y to ":5494,"y \" ":5495,"orph":5496,". Nero ":5497,". Con":5498,"arrest":5499,"archae":5500,"resum":5501,"ates , ":5502,"of Nero ":5503,"of them ":5504,"enjo":5505,"on April ":5506,"and its ":5507,"er @-@ ":5508,"ing from ":5509,"ing its ":5510,"ickn":5511,"room ":5512,"el , ":5513,"urg":5514,"ural ":5515,"urthermor":5516,"ira ":5517,"iral ":5518,"ama ":5519,"\" L":5520,"olf ":5521,"of the World ":5522,"ades ":5523,"imperial ":5524,"unar ":5525,"unity ":5526,"unition ":5527,"unable to ":5528,"why ":5529,"whom ":5530,"whole ":5531,"events ":5532,"evolv":5533,"( M":5534,"ents , ":5535,"chur":5536,"chosen ":5537,"s , \" ":5538,"s , which ":5539,"s , who ":5540,"club":5541,"diplom":5542,"thew ":5543,"promp":5544,"ers the ":5545,"ted in the ":5546,"epoxid":5547,") to ":5548,"to the north ":5549,"trade ":5550,"ears ":5551,"led":5552,"had the ":5553,"Star ":5554,", and a ":5555,"seas ":5556," = = = \n":5557,"recru":5558,"util":5559,"Cho":5560,"Chr":5561,"; this ":5562,". An ":5563,"on the Billboard ":5564,"3 – ":5565,"2000 ":5566,"2005 ":5567,"flat ":5568,"flight ":5569,"phil":5570,"18 , ":5571,"ment of the ":5572,"pref":5573,"Commit":5574,"preserv":5575,"placed in ":5576,"ancest":5577,"saur":5578,"regiment ":5579,"battles ":5580,"— and ":5581,"build ":5582,"erran":5583,"begin ":5584,"specific ":5585,"to be a ":5586,"airstri":5587,"airport ":5588,". Ball ":5589,"substit":5590,"teams ":5591,"names ":5592,"years , ":5593,"ed , but ":5594,"starts ":5595,"head is ":5596,"intern":5597,"many of the ":5598,"added ":5599,"load ":5600,"capable ":5601,"Octav":5602,"College ":5603,"there was ":5604,"alty ":5605,". It is ":5606,"writer ":5607,". That ":5608,"World War":5609,"damag":5610,"retre":5611,"US $ ":5612,"ossil":5613,"NY 31":5614,"greater ":5615,"tried to ":5616,"Carbon":5617,"west of ":5618,"west of the ":5619,"Guard ":5620,"temnospondyls were ":5621,"km / h ; ":5622,"resulted in ":5623,"designed ":5624,"destruc":5625,"muzz":5626,"Naval ":5627,"weeks ":5628,"distance ":5629,"WWE":5630,"front of the ":5631,"reve":5632,"increase ":5633,"after":5634,"mph ) . ":5635,"some of ":5636,"navy ":5637,"metres ( 4 @.@ ":5638,"towards ":5639,"purpos":5640,"effect ":5641,"east of the ":5642,"expand":5643,"residents ":5644,"Gibraltar":5645,"Brun":5646,"dropped ":5647,"version ":5648,"boats were ":5649,"remn":5650,"Christop":5651,"return to ":5652,"ty @-@ ":5653,"south of the ":5654,"example ":5655,"Royal Rum":5656,"tropical cyclones ":5657,"chair":5658,"away from the ":5659,"leading ":5660,"runs ":5661,"process":5662,"process ":5663,"Black ":5664,"oidea ":5665,"primarily ":5666,"condition":5667,"Command ":5668,"battleship":5669,"colossal head ":5670,"volunte":5671,"th century , ":5672,"experienced ":5673,"sculpted ":5674,"launch ":5675,"focus ":5676,"fifth ":5677,"delivered ":5678,"Valent":5679,"post @-@ ":5680,"Archit":5681,"in which the ":5682,"Great Intelligence ":5683,"published in ":5684,"looking ":5685,"architec":5686,"pair of ":5687,"Bogside ":5688,"SmackDown ":5689,"challeng":5690,"Under @-@ ":5691,"laid down ":5692,"distinct ":5693,"Direction ":5694,"School ":5695,"Hyūg":5696,"Traj":5697,"Petrick ":5698,"accepted ":5699,"Agrippina ":5700,"analys":5701,"negot":5702,"erpeton ":5703,"ogadishu ":5704,"ortly after ":5705,"Filipino ":5706,"Eliot ":5707,"religious ":5708,"Ambassador Bishop ":5709,"multiple ":5710,"Somal":5711,"colonial ":5712,"casualties ":5713,"Taiwan ":5714,"peaked at ":5715,"rabbi ":5716,"celebr":5717,"shooting ":5718,"Bulldog":5719,"benef":5720,"inhabitants ":5721,"monsoon trough ":5722,"Meteorological ":5723,"Buffalo ":5724,"View of the World ":5725,"Cassius Dio ":5726,"Zrinski ":5727,"Committe":5728,"muzzle ":5729,"Royal Rumble ":5730," Nero ":5731," Although ":5732,"11 , ":5733,"46 ":5734,"Ago":5735,"Bin":5736,"Cra":5737,"Chad ":5738,"Cros":5739,"Def":5740,"Ev":5741,"Fle":5742,"Hong ":5743,"Ir":5744,"Kong ":5745,"Lu":5746,"Me":5747,"Mag":5748,"Ne":5749,"NL ":5750,"Pis":5751,"RU":5752,"Sim":5753,"Sovi":5754,"Ter":5755,"They ":5756,"Times ":5757,"Vich":5758,"We ":5759,"Wat":5760,"Writ":5761,"bon ":5762,"bour ":5763,"beauty ":5764,"cm ":5765,"cost ":5766,"cities ":5767,"dd":5768,"eur":5769,"fell ":5770,"hun":5771,"ipl":5772,"just":5773,"junction ":5774,"lot ":5775,"last":5776,"led to the ":5777,"loss":5778,"love ":5779,"mann":5780,"ner , ":5781,"ool":5782,"push":5783,"rich ":5784,"sun":5785,"tou":5786,"table ":5787,"un ":5788,"want ":5789,"xyl":5790,"yd ":5791,"yard ":5792,"your ":5793,"yond ":5794,"° ":5795,"ō ":5796,"s from the ":5797,"things ":5798,"ership ":5799,"erected ":5800,"ination ":5801,"inspir":5802,"information ":5803,"anj":5804,"ans":5805,"anth":5806,", as ":5807,", where ":5808,", he was ":5809,"ed its ":5810,"ed up ":5811,". Stevens ":5812,". Li":5813,". Gore ":5814,"arc":5815,"alive ":5816,"atri":5817,"of F":5818,"on December ":5819,"and @-@ ":5820,"stret":5821,"in D":5822,"in Bintulu ":5823,"to @-@ ":5824,"to jo":5825,"to become ":5826,"ics in ":5827,"ilit":5828,"iles ":5829,"illi":5830,"ility of ":5831,"m , ":5832,"m and ":5833,"isc":5834,"at an ":5835,"at WrestleMania ":5836,"is one of the ":5837,"th , ":5838,"urt ":5839,"\" . ":5840,"\" in ":5841,"\" by ":5842,"\" . In ":5843,"( 2015 ":5844,"that \" ":5845,"ches ":5846,"ionary ":5847,"concentr":5848,"confirm":5849,"oppon":5850,"begun ":5851,"beyond ":5852,"190":5853,"expres":5854,"were also ":5855,"theater ":5856,"rest ":5857,"resist":5858,"abb":5859,"ation for ":5860,"ers ( ":5861,"budo ":5862,"ephal":5863,"attention ":5864,"ocephal":5865,"earthqu":5866,"perf":5867,"had an ":5868,"ate in ":5869," = = P":5870,"uck":5871,"uct":5872,"spread ":5873,"odon":5874,"s . B":5875,"recover":5876,"which the ":5877,"which is ":5878,"5 km / h ( 1":5879,"ong the ":5880,"Championship":5881,"; they ":5882,"assman ":5883,"parall":5884,"2004 ":5885,"twent":5886,"time , the ":5887,"grand":5888,"sci":5889,"scap":5890,"brary ":5891,"2014 ":5892,"industr":5893,"prem":5894,"izon ":5895,"res ( ":5896,"ell , ":5897,"ellow ":5898,"presence ":5899," = = = L":5900," = = = Typhoon ":5901,"armour":5902,"ting to ":5903,"auth":5904,"offered ":5905,"Britann":5906,"frig":5907,"All":5908,"Alex":5909,"Allied ":5910,"Aldington ":5911,"surg":5912,"depos":5913,"battery ":5914,"batteries ":5915,"location ":5916,"— the ":5917,"ations of ":5918,"ollowing the ":5919,". Since ":5920,". Butler ":5921,"embly ":5922,"( 1 @,@ ":5923,"Marcus ":5924,". \" The ":5925,"outside ":5926,"km ( ":5927,"a sign":5928,"interior ":5929,"followed by ":5930,"partly ":5931,"develop ":5932,"ipment ":5933,"taking ":5934,"metal ":5935,"peace ":5936,"eyes ":5937,"warship ":5938,"life , ":5939," At ":5940,"succeed":5941,"Imbudo ":5942,"found in ":5943,"temnospondyl ":5944,"refer":5945,"each other ":5946,"modern":5947,"weak ":5948,"because of the ":5949,"designed by ":5950,"centra ":5951,"defend":5952,"defend ":5953,"cris":5954,"2nd Infantry Division ":5955,"grave ":5956,"graves ":5957,"tip ":5958,"deliber":5959,"front of ":5960,"completed ":5961,"year @-@ ":5962,"critics ":5963,"band 's ":5964,"successor ":5965,"increased ":5966,"left the ":5967,"group 's ":5968,"mention":5969,"form of ":5970,"attempts to ":5971,"may have been ":5972,"equipment ":5973,"effective ":5974,"southward ":5975,"do not ":5976,"constructed ":5977,"sequently ":5978,"patri":5979,"patrol ":5980,"ammunition ":5981,"New York":5982,"set up ":5983,"provided ":5984,"carried ":5985,"closely ":5986,"Viet":5987,"ft ) wide ":5988,"less than ":5989,"Eugen":5990,"went on ":5991,"imagery ":5992,"transfer ":5993,"communic":5994,"claimed ":5995,"mainten":5996,"Naktong Bul":5997,"affected ":5998,"become the ":5999,"competition ":6000,"memorials ":6001,"schol":6002,"executed ":6003,"turrets ":6004,"weakened ":6005,"European ":6006,"game , ":6007,"colossal heads ":6008,"hours ":6009,"African ":6010,"Head":6011,"everth":6012,"McMahon ":6013,"stream ":6014,"written by ":6015,"Kuj":6016,"responsible for the ":6017,"preced":6018,"senior ":6019,"meeting ":6020," After the ":6021,"Steiner ":6022,"There are ":6023,"Harv":6024,"range of ":6025,"Glassman ":6026,"satellite ":6027,"assistant ":6028,"individu":6029,"civilians ":6030,"Brad ":6031,"certain ":6032,"editerran":6033,"Belg":6034,"strongly ":6035,"1870":6036,"subsequent ":6037,"invasion ":6038,"Caes":6039,"distric":6040,"district ":6041,"was unable to ":6042,"challenge ":6043,"dissipating ":6044,"couple ":6045,"material ":6046,"Depart":6047,"Jackson ":6048,"explosive ":6049,"Airborne ":6050,"Galb":6051,"replica ":6052,"assault ":6053,"target":6054,"hamle":6055,"forecast":6056,"Weevil ":6057,"Veronica ":6058,"vehic":6059,"Jenny ":6060," Super":6061,"IJN ":6062,"nearby ":6063,"ed PE ":6064,"Velázquez ":6065,"TARDIS ":6066,"Koufa":6067,"formula":6068,"intersection with ":6069,"Texas ":6070,"alongside ":6071,"innesota ":6072,"Pusan Per":6073,"Gulf ":6074,"Sdn Bh":6075,"Carbonif":6076,"remnants ":6077,"Defence ":6078,"Vichy ":6079,"Naktong Bulge ":6080,"editerranean ":6081," <":6082," P":6083,"+ ":6084,"--":6085,"0 . \n":6086,"06 ":6087,"14 , ":6088,"28":6089,"2 . \n":6090,"21 , ":6091,"26 , ":6092,"3 . ":6093,"38 ":6094,"48 ":6095,"4 , the ":6096,"61 ":6097,"AF":6098,"Ber":6099,"Beach ":6100,"CD":6101,"Cam":6102,"Dol":6103,"Foot":6104,"Gom":6105,"Glo":6106,"God ":6107,"Gallery ":6108,"Hus":6109,"Hill":6110,"IWG":6111,"Ken":6112,"Kutuzov":6113,"LNG":6114,"Mend":6115,"Mart":6116,"Middle ":6117,"NF":6118,"Op":6119,"Pa":6120,"Sup":6121,"Soci":6122,"Wander":6123,"Zeal":6124,"bour":6125,"car ":6126,"ction ":6127,"cann":6128,"dens":6129,"een ":6130,"eks ":6131,"fold":6132,"hol":6133,"hang":6134,"hood ":6135,"jud":6136,"k . \n":6137,"mas":6138,"mun":6139,"nin":6140,"nos":6141,"nam ":6142,"oy ":6143,"och":6144,"pon ":6145,"sent":6146,"sical ":6147,"tin":6148,"tap":6149,"ution of ":6150,"wn ":6151,"wav":6152,"yle ":6153,"ywood ":6154,"zone ":6155,"thur":6156,"thos":6157,"thus ":6158,"thick ":6159,"t ) ":6160,"the same ":6161,"instr":6162,", D":6163,". Kershaw ":6164,"alt ":6165,"ren ":6166,"ony ":6167,"onstr":6168,"of an ":6169,"of this ":6170,"a b":6171,"a was ":6172,"energ":6173,"on January ":6174,"and D":6175,"er was ":6176,"station ":6177,"stopp":6178,"in damage ":6179,"ice , ":6180,"itan ":6181,"as its ":6182,"rom":6183,"room":6184,"ild ":6185,"at T":6186,"is and ":6187,"th Infantry ":6188,"asian ":6189," , and the ":6190," , $ ":6191,"was first ":6192,"was nam":6193,"ometr":6194,"ly , ":6195,"\" T":6196,"embr":6197,"emi ":6198,"@-@ time ":6199,"@-@ scale ":6200,"administr":6201,"igg":6202,"imetr":6203,"unknown ":6204,"ple":6205,"pleas":6206,"evid":6207,"ids ":6208,"( c . ":6209,"in the early ":6210,"in the world ":6211,"cle":6212,"exerc":6213,"ers ' ":6214,"it of ":6215,"it 's ":6216,"eption ":6217,"ocial ":6218,"intell":6219,"ighth ":6220,"persist":6221,"lem ":6222,"had to be ":6223,"had no ":6224,"Stri":6225,"Stadium ":6226,"seat ":6227,"sewhere ":6228," = = C":6229,"sport ":6230,"ed to a ":6231,"firing ":6232,"ions of the ":6233,". Ar":6234,"assic ":6235,"neigh":6236,"deg":6237,"also known as ":6238,"2006":6239,"Instit":6240,"their own ":6241,"territ":6242,"disper":6243,"dispu":6244,"dissor":6245,"ance , ":6246,"ropolog":6247,"at the Battle of ":6248,"this period ":6249,"prep":6250,"es , but ":6251,"pre @-@ ":6252,"elling ":6253,"presence of ":6254,"ishop":6255,"Lesnar was ":6256," = = = R":6257,"finalist ":6258,"ega ":6259,"included a ":6260,"carr":6261,"mean ":6262,"ines and ":6263,"him the ":6264,"encies ":6265,"y , but ":6266,"surfac":6267,"lock":6268,"ollowing ":6269,"mature ":6270,". Sh":6271,"suburb":6272,"production of ":6273,"made landfall ":6274,"number one ":6275,"cold ":6276,"appear ":6277,"loan ":6278,"capac":6279,"de Ant":6280,"Coleman ":6281,"remain ":6282,"incor":6283,"War Graves ":6284,"keep ":6285,"slow ":6286,"New Zeal":6287,"30 @-@ ":6288,"counc":6289,". On August ":6290,"model":6291,"officially ":6292,"paid ":6293,"high school ":6294,"ted to a ":6295,"during his ":6296,"older ":6297,"line of ":6298,"series of ":6299,"delay":6300,"per @-@ ":6301,"took place ":6302,"South China ":6303,"South Korea ":6304,"if the ":6305,"mental ":6306,"popular":6307,"Coop":6308,"titled ":6309,"German Imperial ":6310,"establish ":6311,"generated ":6312,"night of ":6313,"explain":6314,"barang":6315,"Imagist":6316,"okh":6317,"Administr":6318,"embassy compound ":6319,"in 180":6320,"return to the ":6321,"Butler 's ":6322,"considered a ":6323,"demonstr":6324,"water":6325,"human":6326,"cours":6327,"standard ":6328,"transport":6329,"Grou":6330,"memorial ":6331,"Indian ":6332,"hearing ":6333,"once again ":6334,"condition ":6335,"conditions ":6336,"Independ":6337,"Dupon":6338,"crossed the ":6339,"Europe ":6340,"espasian ":6341,"makes ":6342,"s . This ":6343,"colossal head":6344,"newly ":6345,"similar to ":6346,"introduced ":6347,"introduction ":6348,"Eryop":6349,"Republic ":6350,"street":6351,"consisted of ":6352,"Young":6353,"Matt ":6354,"Matthew ":6355,"tanks were ":6356,"adapted ":6357,"advisories ":6358,"secondary ":6359,"evacuees ":6360,"transferred to the ":6361,"shaped ":6362,"companies ":6363,"engagement ":6364,"wanted to ":6365,"morning of ":6366,"commentary ":6367,"chiosaur":6368,"invasion of ":6369,". Its ":6370,"defined ":6371,"buildings ":6372,"advantage ":6373,"School":6374,"Services ":6375,"featured ":6376,"All @-@ Star ":6377,"possibly ":6378,"minutes ":6379,"serious ":6380,"situation ":6381,"weighs ":6382,"ittle Gid":6383,"temperature ":6384,"Suetonius ":6385,"23rd Infantry ":6386,"Slam ":6387,"eanwhil":6388,"industrial ":6389,"relationship ":6390,"suitable ":6391,"Chief ":6392,"Tres Zapotes ":6393,"isolated ":6394,"virt":6395,"programm":6396,"Eastern ":6397,"Hamil":6398,"fantas":6399,"superior ":6400,"Council ":6401,"Fleet ":6402,"Irish ":6403,"Soviet ":6404,"anjung ":6405,"odonsaur":6406,"Alexand":6407,"a significant ":6408,"Vietnam ":6409,"Kujira ":6410,"formula>":6411," <formula>":6412,"Football ":6413,"dissoroph":6414,"ropologí":6415,"de Antropologí":6416,"South China Sea ":6417,"ittle Gidding ":6418,"! ":6419,"# ":6420,"' , ":6421,"'re ":6422,"05 ":6423,"0s and ":6424,"1 . ":6425,"12 , ":6426,"10 , ":6427,"25 , ":6428,"29 , ":6429,"28 @.@ ":6430,"31 , ":6431,"5 @,@ ":6432,"63 ":6433,"67 ":6434,"6 @,@ ":6435,"69 ":6436,"71 ":6437,"A.":6438,"Awards ":6439,"Bor":6440,"Bol":6441,"Bei":6442,"Bah":6443,"Block ":6444,"Cy ":6445,"CSS ":6446,"DV":6447,"Est":6448,"Fu":6449,"Fre":6450,"Field ":6451,"Ga":6452,"H. ":6453,"Hug":6454,"I , ":6455,"Late ":6456,"Lower ":6457,"Me ":6458,"Mes":6459,"May":6460,"Mediterranean ":6461,"Ni":6462,"Pra":6463,"P H":6464,"Raw ":6465,"Sel":6466,"Tour":6467,"Trac":6468,"Temnospondyli":6469,"Vir":6470,"Vill":6471,"Vespasian ":6472,"W ":6473,"ai":6474,"aily ":6475,"ax ":6476,"bal":6477,"cand":6478,"done ":6479,"fal":6480,"fought ":6481,"ferry ":6482,"fossil":6483,"hams ":6484,"kes ":6485,"knew ":6486,"less":6487,"mob":6488,"myst":6489,"nu":6490,"nor ":6491,"nov":6492,"poll":6493,"rum":6494,"serve ":6495,"today ":6496,"us of ":6497,"wall ":6498,"yz":6499,"₱ ":6500,"s such as ":6501,"thick":6502,"erou":6503,"eros":6504,"eria ":6505,"ers , and ":6506,"inas ":6507,"inem":6508,"inated ":6509,"ina , ":6510,"inberg ":6511,"ans were ":6512,", was ":6513,", they ":6514,"ors , ":6515,"alk":6516,"f the ":6517,"rej":6518,"repe":6519,"review ":6520,"one , ":6521,"a and the ":6522,"on Raw , ":6523,"er for ":6524,"er . \n":6525,"g , ":6526,"stin ":6527,"in L":6528,"in January ":6529,"in Japan ":6530,"in order to ":6531,"ing in the ":6532,"to \" ":6533,"to play ":6534,"to Tropical Storm ":6535,"ici":6536,"ica , ":6537,"itor ":6538,"as he ":6539,"as part of ":6540,"accompl":6541,"an area of ":6542,"h , ":6543,"at K":6544,"asure ":6545,"eck":6546,"was built ":6547,"\" S":6548,"ets ":6549,"whether ":6550,"wheel":6551,"plates ":6552,"plants ":6553,"haps ":6554,"( R":6555,"( h":6556,"( now ":6557,"usual ":6558,"entional ":6559,"that time ":6560,"s , and the ":6561,"confron":6562,"eavi":6563,"in the United States ":6564,"ria ":6565,"rim ":6566,"rian ":6567,"ray ":6568,"clearly ":6569,". The film ":6570,"being the ":6571,"abor":6572,"abot":6573,"ation with ":6574,"from its ":6575,"intended ":6576,"earned ":6577,"quit":6578,"ated in the ":6579,"had previously ":6580," = = Back":6581,"spar":6582,"spaw":6583,"may":6584,"fire , ":6585,"s . A ":6586,"s . These ":6587,"which are ":6588,"ote ":6589,"shut":6590,"shown ":6591,"shopping ":6592,"turing ":6593,"ture and ":6594,"; and ":6595,"ends ":6596,"ended the ":6597,"parts ":6598,"2008":6599,"2000 , ":6600,"2006 , ":6601,"Infantry , ":6602,"flank ":6603,"worst ":6604,"for the first time ":6605,"erson ":6606,"phys":6607,"commod":6608,"commercial ":6609,"185":6610,"ance to ":6611,"ome What ":6612,"Undispu":6613,"ooth ":6614,"acklet":6615,"sections ":6616,"ollow ":6617,"feet ":6618,"es , including ":6619,"Comb":6620,"Lesnar , ":6621,"president ":6622,"Americans ":6623," = = = P":6624,"And":6625,"would have been ":6626,"Arthur":6627,"kness ":6628,"places ":6629,": 30 ":6630,"marks ":6631,"market":6632,"etro ":6633,") , the ":6634,") , a ":6635,") , which ":6636,"antic ":6637,"means ":6638,"headstones ":6639,"offat ":6640,"fru":6641,"1941 ":6642,"1941 , ":6643,"depart":6644,"ple Beth Israel ":6645,"pite the ":6646,"Manila , ":6647,"match":6648,"tom ":6649,". Several ":6650,". Be":6651,"withdrew ":6652,"North America ":6653,"tempor":6654,"ccording to the ":6655,"evelopment ":6656,"interest":6657,"became the first ":6658,"invent":6659,"both sid":6660,"take the ":6661,"los ":6662,"accur":6663,"complex":6664,"Colon":6665,"warship":6666,"forced to ":6667,"damage , ":6668,"slop":6669,". Many ":6670,"before being ":6671,"icultural ":6672,"ect the ":6673,"triple ":6674,"appeared in the ":6675,"Carwin ":6676,"classific":6677,"transition ":6678,"music":6679,"weather ":6680,"match with ":6681,"Armoured ":6682,"centre ":6683,"Maemi ":6684,"metres ( 1":6685,"pitcher to ":6686,"evacuated ":6687,"Warrior ":6688,"received the ":6689,"received a ":6690,"simpl":6691,"tonn":6692,"increasingly ":6693,"ideas ":6694,"178":6695,"17 , ":6696,"state of ":6697,"emetery ":6698,"crossed ":6699,"excell":6700,"described the ":6701,"Coach ":6702,"infra":6703,"genera ":6704,"killing ":6705,"barbet":6706,"drove ":6707,"replacement ":6708,"statu":6709,"summ":6710,"belief ":6711,"relativ":6712,"north of the ":6713,"limit":6714,". Later ":6715,"estimated peak ":6716,"background ":6717,"will be ":6718,"making it ":6719,"chair ":6720,"divisions ":6721,"connected ":6722,"announced that ":6723,"country 's ":6724,"Agency ":6725,"development of ":6726,"type of ":6727,"week ending ":6728,"% of the ":6729,"Pacific":6730,"figur":6731,"identified ":6732,"recorded ":6733,"project ":6734,"Ball 's ":6735,"peak intensity ":6736,"Sarah ":6737,"current ":6738,"anything ":6739,"rept":6740,"Command":6741,"crossing ":6742," While ":6743,"image impedance ":6744,"sculpture ":6745,"paintings ":6746,"Robin":6747,"indicating ":6748,"organization ":6749," . However , ":6750,"captured ":6751,"broadside ":6752,"prison":6753,"adopted ":6754,"example , ":6755,"Joseph":6756,"needed to ":6757,"source ":6758,"Intramuros ":6759,"toward the ":6760,"transferred to ":6761,"Torres ":6762,"wanted ":6763,"classic ":6764,"s . However , ":6765,"certified ":6766,"frequently ":6767,"merSlam ":6768,"member of the ":6769,"SummerSlam ":6770,"top @-@ ":6771,"progres":6772,"minute winds of ":6773,"decision to ":6774,"characterist":6775,"nationalist ":6776,"numbers ":6777,"Kirby 's ":6778,"Governor ":6779,"Smith ":6780,"Ulm ":6781,"enough to ":6782,"exhibition ":6783,"Confeder":6784,"Hill 20":6785,"Service ":6786,"semi":6787,"think ":6788,"security ":6789,"Burnhams ":6790,"tlement ":6791,"women ":6792,"Strax ":6793,"violence ":6794,"monuments ":6795,"Schmitt ":6796,"measures 1 @.@ ":6797,"sustained winds of ":6798,"quarter":6799,"percent ":6800,"F @-@ 5 ":6801,"bottom ":6802,"discuss":6803,"conspiracy ":6804,"terms of ":6805,"slowly ":6806,"narrow ":6807,"potential ":6808,"wounded ":6809,"@-@ loading ":6810,"constant ":6811,"submarines ":6812,"Horizon ":6813,"dynasty ":6814,"Austro @-@ Hungarian Navy ":6815,"encounter":6816,"rebellion ":6817,"Kemena ":6818,"Chicago ":6819,"worldwide ":6820,"synagogue ":6821,"Summer Olymp":6822,"nitrogen ":6823,"congregation ":6824,"Athlet":6825,"enjoy":6826,"capable of ":6827,"Christopher ":6828,"Zrinski Battalion ":6829,"RUC ":6830,"twenty ":6831,"crisis ":6832,"hamlet of ":6833,"Koufax ":6834,"IWGP H":6835,"instrum":6836,"intelligence ":6837,"incorpor":6838,"eanwhile , ":6839,"Cy Young ":6840," = = Background ":6841,"IWGP Heavyweight ":6842," It ":6843,"'ve ":6844,"140 ":6845,"13 , ":6846,"16 , ":6847,"2 . ":6848,"22 , ":6849,"33 ":6850,"36 ":6851,"3 @,@ ":6852,"4th ":6853,"4 . \n":6854,"4 @,@ 000 ":6855,"5th ":6856,"57 ":6857,"68 ":6858,"76 ":6859,"72nd ":6860,"8 @-@ ":6861,"81 ":6862,"9 . ":6863,"92 ":6864,"900 ":6865,"Are":6866,"But":6867,"Boy":6868,"Bening ":6869,"Crist":6870,"Cemetery ":6871,"Dokh":6872,"ES":6873,"Fel":6874,"Fus":6875,"Four":6876,"Hu":6877,"Hay":6878,"H @-@ ":6879,"H.D":6880,"IG":6881,"Jer":6882,"Jan":6883,"Luc":6884,"LB ":6885,"Mac":6886,"Man ":6887,"Mogadishu ":6888,"Nic":6889,"Naz":6890,"Plat":6891,"Roll":6892,"Raj":6893,"Sir ":6894,"Sports ":6895,"VI ":6896,"Vick":6897,"With ":6898,"X ":6899,"XX":6900,"ban ":6901,"bor ":6902,"bad ":6903,"co @-@ ":6904,"dom":6905,"dated ":6906,"eb":6907,"fon":6908,"fun":6909,"fit ":6910,"func":6911,"fuel ":6912,"gar":6913,"gay ":6914,"gill":6915,"gold ":6916,"hus":6917,"hatt":6918,"heavi":6919,"ios":6920,"ik ":6921,"ied by ":6922,"jung":6923,"km2 ":6924,"lay":6925,"led by ":6926,"lav":6927,"lunar ":6928,"mom":6929,"must ":6930,"mech":6931,"ns ":6932,"non":6933,"nes":6934,"narr":6935,"pain ":6936,"ramm":6937,"ridg":6938,"rhachitom":6939,"sn":6940,"sav":6941,"sabot":6942,"tend":6943,"tial ":6944,"tional ":6945,"tens":6946,"tour ":6947,"tland ":6948,"vat":6949,"veg":6950,"win":6951,"yang ":6952,"ze ":6953,"z , ":6954,"e T":6955,"s his ":6956,"s on the ":6957,"thous":6958,"ered a ":6959,"the French ":6960,"infl":6961,"inside ":6962,"anch":6963,", although ":6964,"ed but ":6965,"ed several ":6966,"ed into a ":6967,"y in ":6968,"arg":6969,"alent ":6970,"alap":6971,"alism ":6972,"alleg":6973,"alists ":6974,"reason ":6975,"revis":6976,"reason":6977,"onto ":6978,"oni ":6979,"atu":6980,"atem":6981,"ensu":6982,"on 1 ":6983,"on their ":6984,"and other ":6985,"and then ":6986,"stable ":6987,"step ":6988,"in S":6989,"in The ":6990,"in October ":6991,"in June ":6992,"in November ":6993,"ing on the ":6994,"to leave ":6995,"itch":6996,"as it was ":6997,"es for ":6998,"es that the ":6999,"il , ":7000,"acad":7001,"accompan":7002,"an \" ":7003,"al and ":7004,"eline ":7005,"ission ":7006,"is \" ":7007,"is that ":7008,"is currently ":7009,"esis ":7010,"ase ":7011,"was in ":7012,"was later ":7013,"was found ":7014,"was held ":7015,"was establish":7016,"amid":7017,"olic ":7018,"@-@ and @-@ ":7019,"@-@ to @-@ ":7020,"ive , ":7021,"where":7022,"plot ":7023,"( 2":7024,"( the ":7025,"( ever ":7026,"( born ":7027,"that are ":7028,"that day ":7029,"chiral ":7030,"'s first ":7031,"consum":7032,"constit":7033,"conclus":7034,"opport":7035,"opened ":7036,"ray":7037,"rail":7038,"sud":7039,"suic":7040,". The first ":7041,"bear":7042,"19 , ":7043,"exclus":7044,"theat":7045,"prove ":7046,"resign":7047,"rescu":7048,"resembl":7049,"abs":7050,"ation . The ":7051,"ers in the ":7052,"eption = = \n":7053,") — ":7054,") May ":7055,"attr":7056,"attribu":7057,"ocr":7058,"ocaus":7059,"ocean ":7060,"trou":7061,"ated by the ":7062,"had not ":7063,"lie ":7064,"Stir":7065,"Studi":7066,"Staff ":7067,"sif":7068," = = Early ":7069,"odern ":7070,"utionary ":7071,"5 – ":7072,"ott ":7073,"short":7074,"one @-@ ":7075,"Chan @-@ ":7076,"illustr":7077,"edic":7078,". As the ":7079,"ings of ":7080,"1 and ":7081,"height ":7082,"storyl":7083,". However , the ":7084,"2007":7085,"Indig":7086,"book":7087,"ak , ":7088,"flex":7089,"flying ":7090,"time the ":7091,"rend":7092,"renam":7093,"rence ":7094,"2016 ":7095,"formerly ":7096,"' C ":7097,"– 0":7098,"age to ":7099,"ropol":7100,"Auster":7101,"feel ":7102,"ordered the ":7103,"has also ":7104,"unday ":7105,"achyop":7106,"fill ":7107,"filters ":7108,"ain a ":7109,"angle ":7110,"obata ":7111,"Manhatt":7112,"Ann":7113,"Andrew ":7114,"know ":7115,"who were ":7116,"placing ":7117,"placed in the ":7118,"s were also ":7119,"mind ":7120,"mark ":7121,"ylogen":7122,"center of ":7123,"only the ":7124,"only one ":7125,"actors ":7126,"aug":7127,"anticip":7128,"moved to ":7129,"movie ":7130,"seventh ":7131,"strike ":7132,"annual ":7133,"encour":7134,"guest ":7135,"1943 ":7136,"1949 ":7137,"when they ":7138,"ear and ":7139,"regg":7140,"regist":7141,"facilities ":7142,"— a ":7143,"ations and ":7144,"structures ":7145,"begins ":7146,"specim":7147,"matosaur":7148,". But ":7149,"plays ":7150,"river and ":7151,"Manila . \n":7152," Sh":7153," San ":7154,"Marsh":7155,"named the ":7156,"where it ":7157,"oute ":7158,"though the ":7159,"That ":7160,"selection ":7161,"landscap":7162,"international ":7163,"partially ":7164,"syst":7165,"Ocean ":7166,"field":7167,"rans":7168,"province ":7169,"provinc":7170,"there was a ":7171,"remaind":7172,"war , ":7173,"direction ":7174,"forcing ":7175,". Three ":7176,"lifted ":7177," As ":7178,"retary ":7179,"retain":7180,"retained ":7181,"US 2nd Division ":7182,"sister ":7183,"engines ":7184,"called a ":7185,"Clax":7186,"ifications ":7187,"album was ":7188,"clash":7189,"translat":7190,"west @-@ ":7191,". Despite ":7192,"Guatem":7193,"ton Shi":7194,"ors of the ":7195,"result , ":7196,"attacking ":7197,"signific":7198,"appropri":7199," \" The ":7200,"White ":7201,"line , ":7202,"Warren ":7203,"detail ":7204,"northward ":7205,"causing ":7206,"passage ":7207,"legal ":7208," From ":7209," This ":7210,"Music ":7211,"ternal ":7212,"navies ":7213,"cross ":7214,"metres ( 5 @.@ ":7215,"fluor":7216,"described by ":7217,"hydra":7218,"Greek ":7219,"gives ":7220,"response ":7221,"explor":7222,"protot":7223,"protected ":7224,"Quez":7225,"period of ":7226,"othing ":7227,"verse ":7228,". After the ":7229,"related ":7230,"rapid ":7231,"north of ":7232,". Early ":7233,"claim ":7234,"heavy rainfall ":7235,"amphibious ":7236,"limb":7237,"because it ":7238,"ft ) deep":7239,"Mendes ' ":7240,"B Company ":7241,"losing ":7242,"loss of ":7243,"Flav":7244,"involved ":7245,"involved in the ":7246,"waters ":7247,"ambassador ":7248,"paleontolog":7249,"World War II ":7250,"top of the ":7251,"discovered ":7252,"bombing ":7253,"days later ":7254,"Georg":7255,"running ":7256,"itionally ":7257,"problem ":7258,"type ":7259,"figures ":7260,"themsel":7261,"to go ":7262,"becomes ":7263,"schem":7264,"execut":7265,"heartland ":7266,"a Cobata ":7267,"activities ":7268,"as well as the ":7269,"saw the ":7270,"battleship ":7271,"between the two ":7272,"Tropical Dep":7273,"oxaziridine ":7274,"mission":7275,"value ":7276,"Ricky 's ":7277,"brief ":7278,"focused ":7279,"struck out ":7280,"praised the ":7281,"stated that ":7282,"younger ":7283,"Broad":7284,". Instead ":7285,"torpedo":7286,"deteri":7287,"doub":7288,"evacuees were ":7289,"shape ":7290,"problem":7291,"famili":7292,"Morti":7293,"System ":7294,"getting ":7295,"animals ":7296,"pressure of ":7297,"emnospondyl":7298,"progress":7299,"subject ":7300,"friendly ":7301,"associated with ":7302,"Government ":7303,"practice ":7304,"married ":7305,"ask Force ":7306,"occurr":7307,"Labyrinthodont":7308,"victim":7309,"strategic ":7310,"battalions , ":7311,"Campaign ":7312,"Holocaus":7313,"One Direction ":7314,"abandoned ":7315,"bodies ":7316,"Mountain Road ":7317,"foreign ":7318,"helped ":7319,"Francis ":7320,"lyrics ":7321,"crowd ":7322,"economic ":7323,"Triple H ":7324,"hundred ":7325,"mortar ":7326,"guitar":7327,"Goldberg ":7328,"susp":7329,"aspects ":7330,"implement":7331,"debuted ":7332,"rate of ":7333,"edge of the ":7334,"Albums ":7335,"people , ":7336,"Admiral ":7337,"interview":7338,"ordered to ":7339,"miles per hour ( 1":7340,"Flanders ":7341,"journey ":7342,"knowled":7343,"long @-@ range ":7344,"Mastodonsaur":7345,"Taylor ":7346,"archaeological ":7347,"urthermore , ":7348,"Chris ":7349,"philos":7350,"NY 31B ":7351,"Hong Kong ":7352,"Britannic":7353,"year @-@ old ":7354,"vehicles ":7355,"Velázquez 's ":7356,"Pusan Perimeter ":7357,"Sdn Bhd ":7358,"German Imperial Navy ":7359," <formula> \n":7360,"Block Ball ":7361,"Praetor":7362,"candid":7363,"ome What ( ever ":7364,"Undisputed ":7365,"temporarily ":7366,"veget":7367,"Indigenous ":7368,"Austerlit":7369,"Claxton Shi":7370,"Guatemal":7371,"Quezon ":7372,"Tropical Depression ":7373,"ome What ( ever ) May ":7374,"Claxton Shield ":7375,".co":7376,"1000 ":7377,"130 ":7378,"43 ":7379,"42 ":7380,"5 . \n":7381,"58 ":7382,"800 ":7383,"BC":7384,"Bi":7385,"Ben ":7386,"Bay ":7387,"Bud":7388,"BA ":7389,"Cocc":7390,"Cath":7391,"CH @-@ ":7392,"Cregg":7393,"Den":7394,"Du F":7395,"Each ":7396,"Fast ":7397,"Ho":7398,"Hop":7399,"Hum":7400,"Hard":7401,"Hank":7402,"Hospital ":7403,"IV":7404,"IRA":7405,"JP":7406,"Jud":7407,"King ":7408,"Lin":7409,"Log":7410,"Lake ":7411,"La Cobata ":7412,"MA":7413,"Mi":7414,"Mk ":7415,"Mary ":7416,"Moon ":7417,"Minnesota ":7418,"Nations ":7419,"Ov":7420,"Oth":7421,"Oman ":7422,"Pri":7423,"Parm":7424,"Part":7425,"Richard ":7426,"Route ":7427,"Sol":7428,"Sing":7429,"Sega ":7430,"Sunday ":7431,"TE":7432,"Tu":7433,"Tit":7434,"Tom":7435,"Team ":7436,"Yany":7437,"bone ":7438,"bell ":7439,"bound":7440,"beaut":7441,"cum":7442,"care ":7443,"core ":7444,"canc":7445,"ceas":7446,"caught ":7447,"din":7448,"dut":7449,"dense ":7450,"eo ":7451,"ei ":7452,"ey , ":7453,"eign ":7454,"fem":7455,"fts ":7456,"fill":7457,"fter":7458,"faul":7459,"fash":7460,"follow ":7461,"gren":7462,"hir":7463,"heter":7464,"iel ":7465,"ipit":7466,"ius , ":7467,"jam":7468,"kel":7469,"lin ":7470,"lov":7471,"lying ":7472,"merg":7473,"male ":7474,"nature ":7475,"oing ":7476,"rat":7477,"rough":7478,"roughout ":7479,"sac":7480,"sam":7481,"se , ":7482,"snowmen ":7483,"ta ":7484,"ten":7485,"tel":7486,"task ":7487,"tunn":7488,"ud ":7489,"uan ":7490,"uch":7491,"uge ":7492,"var":7493,"ver ":7494,"vice ":7495,"wr":7496,"wen ":7497,"wear":7498,"wast":7499,"¥ ":7500,"α @-@ ":7501,"e a ":7502,"s or ":7503,"s like ":7504,"tham ":7505,"throw ":7506,"t . \n":7507,"ined ":7508,"infr":7509,"ination of ":7510,"orad":7511,". St":7512,"arts ":7513,"als . ":7514,"alone ":7515,"alist":7516,"o was ":7517,"recomm":7518,"reaction ":7519,"reports ":7520,"ones , ":7521,"atory ":7522,"of S":7523,"of all ":7524,"a large ":7525,"and A":7526,"and \" ":7527,"and their ":7528,"star ":7529,"stern ":7530,"stop ":7531,"in P":7532,"in her ":7533,"in both ":7534,"in late ":7535,"outh":7536,"ing . \n":7537,"to C":7538,"to an ":7539,"to do ":7540,"to take ":7541,"ics , ":7542,"icted ":7543,"itz":7544,"as they ":7545,"es . He ":7546,"m ) ":7547,"acts ":7548,"accommod":7549,"elect":7550,"element":7551,"elimin":7552,"elsewhere ":7553,"he had been ":7554,"was still ":7555,"was named ":7556,"was born ":7557,"ird ":7558,"ami ":7559,"@-@ day ":7560,"@-@ per @-@ ":7561,"The Undertaker ":7562,"igu":7563,"osex":7564,"iment":7565,"impossible ":7566,"impress":7567," . When ":7568,"uni":7569,"whel":7570,"white ":7571,"plans ":7572,"hab":7573,"hael ":7574,"haust":7575,"ultan":7576,"k 's ":7577,"( A":7578,"( P":7579,"used in ":7580,"agent ":7581,"entially ":7582,"entered the ":7583,"that he was ":7584,"chose ":7585,"for several ":7586,"ionally ":7587,"with its ":7588,"in the country ":7589,"ophy":7590,"his \" ":7591,"rier ":7592,"rifl":7593,"rav":7594,"died in ":7595,"suit ":7596,"1915":7597,"1914 ":7598,"express":7599,"external ":7600,"exhaust":7601,"were the ":7602,"theatre ":7603,"ation is ":7604,"ation that ":7605,"ation = = \n":7606,"ted to the ":7607,"bus ":7608,"buster ":7609,") and the ":7610,"attered ":7611,"attained ":7612,"attended ":7613,"attrac":7614,"try":7615,"trong ":7616,"ity and ":7617,"perhaps ":7618,"estyle ":7619,"had already ":7620,"ts in ":7621,"ts were ":7622,"ate and ":7623,"library ":7624,"stric":7625,"seem ":7626,"all of ":7627," = = History ":7628,"space ":7629,"recall":7630,"which were ":7631,"utch ":7632,"ayan ":7633,"otic ":7634,"shore ":7635,"out and ":7636,"ong @-@ n":7637,"its of ":7638,"assembl":7639,"endr":7640,"neu":7641,"avoid ":7642,"heat ":7643,"first @-@ ":7644,". Hall ":7645,"twel":7646,"twice ":7647,"s of S":7648,"ia . \n":7649,"ground":7650,"iful":7651,"desire ":7652,"overwhel":7653,"terrain ":7654,"bre ":7655,"bridg":7656,"contro":7657,"contain":7658,"contact ":7659,"phoon":7660,"phylogen":7661,"formation of ":7662,"' A ":7663,"block":7664,"commerce ":7665,"er , which ":7666,"4 million ":7667,"dispat":7668,"ackSh":7669,"secret ":7670,"induc":7671,"at the end of the ":7672,"ession ":7673,"this time , ":7674,"predomin":7675,"has its ":7676,"izont":7677,"erican ":7678,"eric , ":7679,"obsol":7680,"obatrach":7681,"Lesnar defeated ":7682,"Art":7683,"placement ":7684,"finish ":7685,"egg":7686,"includes ":7687,"include the ":7688,"carry ":7689,"marine ":7690,"money ":7691,"creating ":7692,"meet ":7693,"guard ":7694,"upon the ":7695,"astic ":7696,"surv":7697,"over a ":7698,"based on the ":7699,"specific":7700,"up in ":7701,". Bintul":7702,"withdraw":7703,"embar":7704,"subtropical ":7705,"substant":7706,"temporary ":7707,"serves ":7708,"services ":7709,"aza ":7710,"starr":7711,"start of the ":7712,"Thomas ":7713,"colleg":7714,") . In ":7715,"followed ":7716,"developed a ":7717,"evening ":7718,"takes ":7719,"historical ":7720,"Colleg":7721,"Columb":7722,"Battle ":7723,"during the night ":7724,"son of ":7725,"operate ":7726,"operating ":7727,"below":7728,"could not be ":7729,"warning ":7730,"director":7731,"visual ":7732,"Division I ":7733,"guns , ":7734,"broad ":7735,"New South ":7736,"men were ":7737,"retir":7738,"second @-@ ":7739,"descrip":7740,"Junction ":7741,". From ":7742,"US 2nd Infantry Division ":7743,"small , ":7744,"10 @,@ 000 ":7745,", but he ":7746,"reference ":7747,"refused to ":7748,"appeared ":7749,"inner ":7750,"conventional ":7751,"remains ":7752,"remained in ":7753,"Lead":7754,"museum ":7755,"doing ":7756,"officer ":7757,"officers ":7758,"Ise ":7759,"Armen":7760,"ed for a ":7761,"designed to ":7762,"Shacklet":7763,"defence ":7764,"oxy":7765,"crat":7766,"famous ":7767,"mann ":7768,"graph":7769,"goal ":7770,"extended ":7771,"extensive ":7772,"took the ":7773,"receiving ":7774,"held a ":7775,"USS":7776,"one of the most ":7777,"dry ":7778,"ments of ":7779,"metres ( 6 @.@ ":7780,"described ":7781,"Commission 's ":7782,"cultural ":7783,"killed and ":7784,"construction of ":7785,"QuackSh":7786,"Austria @-@ ":7787,"career = = \n":7788,"Actor ":7789,"ghost ":7790,"mm ( 1":7791," . At ":7792,"years old ":7793,"Principal ":7794,"support of the ":7795,"issue ":7796,"issued ":7797,"Russians ":7798,". Also ":7799,"considered the ":7800,"established ":7801,"concep":7802,"those who ":7803,"works , ":7804,"involvement ":7805,"was also the ":7806,"showing ":7807,"Senec":7808,"palace ":7809,"species are ":7810," . It was ":7811,"agreement ":7812,"27 , ":7813,"270 ":7814,"Lorenzo Colossal Head ":7815,"days later , ":7816,"Reconn":7817,"sent to ":7818,"week of ":7819,"Olmec heartland ":7820,"like the ":7821,"becoming ":7822,"Waltham ":7823,"oids ":7824,"tradition ":7825,"technical ":7826,"role in the ":7827,"planned ":7828,"executive ":7829,"Indian":7830,"basketball":7831,"village of ":7832,"cemeteries and ":7833,"campus ":7834,"Reign":7835,"threw ":7836,"northeast of ":7837,"Hitler 's ":7838,"U @-@ 10 ":7839,"ability to ":7840,"s . They ":7841,"San Lorenzo Monument ":7842,"horizont":7843,"studio album , ":7844,"size of the ":7845,"recognis":7846,"examples of ":7847,"wrestl":7848,"wife , ":7849,"seconds ":7850,"Both ":7851,"floor ":7852,"Braz":7853,"salam":7854,"Heavyweight Championship ":7855,"Miri ":7856,"portray":7857,"pattern ( T":7858,"qualification ":7859,"upgraded the ":7860,"mounted ":7861,"practical ":7862,"Director ":7863,"Only ":7864,"Santa ":7865,"Canadian ":7866,"Second World War":7867,"voice ":7868,"explosion ":7869,"bands @-@ ":7870,"songs ":7871,"speak ":7872,"declared ":7873,"coast of ":7874,"business":7875,"business ":7876,"minimum ":7877,"headquarters ":7878,"Bai ":7879,"split ":7880,"search party ":7881,"weapons ":7882,"arrangement ":7883,"disturbance ":7884,"advanced ":7885,"foot ":7886,"apparent ":7887,"Club ":7888,"long tons ( ":7889,"Civil War ":7890,"pay @-@ per @-@ ":7891,"sexual ":7892,"equipped with ":7893,"Rossen ":7894,"garden ":7895,"Special ":7896,"episode of Raw , ":7897,"Official ":7898,"Bulgarian ":7899,"Industrial ":7900,"granted ":7901,"photograph":7902,"responsibility ":7903,"People ":7904,"Temple Beth Israel ":7905,"synthesis ":7906,"Break":7907,"Catalinas ":7908,"house":7909,"therefore ":7910,"estival ":7911,"mountain":7912,"chairman ":7913,"Agok ":7914,"referenc":7915,"ft ) wide by 1 @.@ ":7916,"scholar":7917,"Belgium ":7918," Superfamily ":7919,"Keny":7920,"dispers":7921,"prepare ":7922,"capacity of ":7923,"Cooper ":7924,"virtually ":7925,"Beij":7926,"Hugh ":7927,"Colonel ":7928,"Robinson ":7929,"semiaquatic ":7930,"Summer Olympics in ":7931," = = Background = = \n":7932,"H.D. ":7933,"jungle ":7934,"ramming ":7935,"Stirling ":7936,"ropolitan ":7937," San Lorenzo Colossal Head ":7938,"knowledge ":7939,"philosoph":7940," = = History = = \n":7941,". Bintulu ":7942,"New South Wal":7943,"QuackShot ":7944,"Austria @-@ Hung":7945,"Reconnaissance ":7946,"horizontal ":7947,"bands @-@ Hank":7948," E":7949," In":7950," He ":7951," Operation ":7952,"% , ":7953,"02 ":7954,"1 . \n":7955,"120 ":7956,"12 @.@ ":7957,"2 , the ":7958,"2 @,@ 000 ":7959,"3 @-@ ":7960,"39 ":7961,"3 , the ":7962,"3 @,@ 000 ":7963,"41 ":7964,"47 ":7965,"4 . The ":7966,"54 ":7967,"9 @,@ ":7968,"Ball":7969,"BBC ":7970,"CA":7971,"Cow":7972,"Cha":7973,"Call":7974,"Coll":7975,"Celt":7976,"Dar":7977,"Dan ":7978,"Don 't ":7979,"Development ":7980,"Fri":7981,"Family ":7982,"Gle":7983,"Harr":7984,"Kar":7985,"Loc":7986,"Lak":7987,"Li ":7988,"Oil ":7989,"Okin":7990,"Por":7991,"Ru":7992,"Rel":7993,"Res":7994,"Rog":7995,"Rock":7996,"Sa":7997,"Spr":7998,"Sull":7999,"Tro":8000,"Tok":8001,"Take ":8002,"Task Force ":8003,"UK":8004,"UR":8005,"Upper ":8006,"Vari":8007,"Wall":8008,"With":8009,"Xalap":8010,"Zi":8011,"ain the ":8012,"bat":8013,"bore ":8014,"big ":8015,"ball , ":8016,"ce":8017,"cage ":8018,"dac":8019,"egr":8020,"fellow ":8021,"gin":8022,"gent":8023,"gained ":8024,"hot":8025,"hom ":8026,"however ":8027,"iff":8028,"i . \n":8029,"job":8030,"ka ":8031,"lic":8032,"nose ":8033,"neverth":8034,"ox ":8035,"pil":8036,"pec":8037,"pop ":8038,"phib":8039,"rar":8040,"tal ":8041,"turo":8042,"ue , ":8043,"us . ":8044,"ugg":8045,"ven ":8046,"w , ":8047,"wish":8048,"wave ":8049,"wrin":8050,"xazirid":8051,"yo ":8052,"yards ":8053,"s it ":8054,"s that the ":8055,"s per ":8056,"era , ":8057,"the \" ":8058,"the North Koreans ":8059,"ine , ":8060,"anhous":8061,"anau ":8062,", is ":8063,", in the ":8064,", were ":8065,", however , ":8066,"ornam":8067,". U":8068,". Un":8069,"aloc":8070,"rebuilt ":8071,"remark":8072,"ons ":8073,"onal ":8074,"onument ":8075,"onald ":8076,"of H":8077,"of The ":8078,"a ) ":8079,"a ; ":8080,"enem":8081,"ens , ":8082,"eness ":8083,"enabl":8084,"on M":8085,"on 7 ":8086,"on land ":8087,"on each ":8088,"and F":8089,"and d":8090,"and to ":8091,"and were ":8092,"er \" ":8093,"er St":8094,"stro":8095,"stap":8096,"stay":8097,"styl":8098,"stere":8099,"in \" ":8100,"in some ":8101,"in September ":8102,"in December ":8103,"in March ":8104,"in terms of ":8105,"outing ":8106,"ing that the ":8107,"to their ":8108,"to this ":8109,"to lead ":8110,"to hold ":8111,"to win the ":8112,"to provide ":8113,"to produce ":8114,"ician ":8115,"itiz":8116,"itled ":8117,"as to ":8118,"as well":8119,"rop ":8120,"rovan":8121,"acting ":8122,"acio ":8123,"an estimated ":8124,"al the ":8125,"island":8126,"he is ":8127,"he would ":8128,"he could ":8129,"at S":8130,"at that time ":8131,"is known ":8132,"th Infantry Division ":8133,"ure , ":8134,"was \" ":8135,"was selected ":8136,"was forced to ":8137,"irm":8138,"amat":8139,"aming ":8140,"amet":8141,"\" to ":8142,"\" un":8143,"\" in the ":8144,"\" I ":8145,"of the C":8146,"@-@ T":8147,"@-@ up ":8148,"aded ":8149,"eta ":8150,"ette ":8151,"igul":8152,"osc":8153,"plate ":8154,"ulsion ":8155,"( and ":8156,"( also known as ":8157,"agr":8158,"enter the ":8159,"entitled ":8160,"that a ":8161,"chin ":8162,"'s \" ":8163,"'s 100 ":8164,"ent of ":8165,"conqu":8166,"eath ":8167,"in the same ":8168,"oposaur":8169,"ovich ":8170,"clad ":8171,"dik":8172,". The head ":8173,". The French ":8174,". The following ":8175,"ers are ":8176,"ted with ":8177,"ephe":8178,"attend":8179,"integr":8180,"earn":8181,"quick ":8182,"leagu":8183,"ts the ":8184,"Stu":8185,"Stereospond":8186,"stronom":8187,"sport":8188,"s . M":8189,"recently ":8190,"ed by his ":8191,"shel":8192,"shad":8193,"shots ":8194,"Chil":8195,"; it was ":8196,"ederal ":8197,"ings and ":8198,"ritics ":8199,"assembly ":8200," @-@ inch ":8201,"net ":8202,"but the ":8203,"deem":8204,"wehr":8205,"not to ":8206,"2002 ":8207,"2005 , ":8208,"Inter":8209,"box":8210,"boy ":8211,"boil":8212,"flatt":8213,"word":8214,"work , ":8215,"ine and ":8216,". Their ":8217,"Amy ":8218,"Amphib":8219,"scattered ":8220,"bring ":8221,"brig":8222,"bring":8223,"contain ":8224,"context ":8225,"sides ":8226,"side and ":8227,"formal ":8228,"commission ":8229,"age and ":8230,"ooth":8231,"6 million ":8232,"at the age of ":8233,"ampaloc":8234,"Author":8235,"ollywood ":8236,"feud ":8237,"predec":8238,"predic":8239,"ensively ":8240,"Complex":8241,"achute ":8242,"principal ":8243,"press ":8244,"awn ":8245,"awa ":8246,"Lesnar and ":8247," = = = T":8248,"ardin":8249,"ardo ":8250,"Anth":8251,"vious ":8252,"finest ":8253,"egas ":8254,"included the ":8255,"as a tropical depression ":8256,"march":8257,"actor":8258,"hile the ":8259,"headstone ":8260,"headquarter":8261,"decad":8262," , the Commission ":8263,"frustr":8264,"1944 , ":8265,"ances , ":8266,"saf":8267,"faced ":8268,"facing ":8269,"— were ":8270,"into an ":8271,"spect":8272,"to be the ":8273,"airfield ":8274,"within a ":8275,"played a ":8276,"served ":8277,"through a ":8278,"tropical storm":8279,"Third ":8280,"Thanhous":8281,"colum":8282,") . A":8283,"apprec":8284,"symbol":8285,"ipul":8286,"added to the ":8287,"suppos":8288,"typhoon":8289,"access ":8290,"accused ":8291,"accident ":8292,"proved ":8293,"incident ":8294,"operational ":8295,"belt ":8296,"visible ":8297,"lifestyle ":8298,"guns and ":8299," According to ":8300,". Mc":8301,"$ 2":8302,"second half ":8303,"engine ":8304,"NY 270 ":8305,"found the ":8306,"team , ":8307,"burned ":8308,"buried ":8309,"appeared in ":8310,"governess ":8311,"governor of ":8312,"innov":8313,"curv":8314,"musical ":8315,"Paris ":8316,"Park , ":8317,"work was ":8318,"Guang":8319,"cases ":8320,"said the ":8321,"match at ":8322,"Edop":8323,"rown ":8324,"paea ":8325,"resulted in the ":8326,"Lester and ":8327,"Maxim":8328,"San Crist":8329,"what he ":8330,"approaching ":8331,"Fron":8332,"advice ":8333,"light tank ":8334,"ations . ":8335,"deleg":8336,"line . The ":8337,"critic ":8338,"successful":8339,"reaching ":8340,"reached the ":8341,"Profess":8342,"USD ) ":8343,"South Australia ":8344,"metres ( 3 @.@ ":8345,"peaking ":8346,"describes ":8347,"described as ":8348,"Coast ":8349,"notable ":8350,"people were ":8351,"1960":8352,"organized ":8353,"equiv":8354,"giving ":8355,"southwest ":8356,"southeastern ":8357,"ians , ":8358,"estimates ":8359,"protest":8360,"barrel":8361,"ammy ":8362,"miles ( 1":8363,"New Yorker ":8364,"version of ":8365,"collected ":8366,"suffering ":8367,"Aces ":8368,"carried out ":8369,"2 @.@ 5 ":8370,"initi":8371,". Each ":8372,"Pro ":8373,"life = = \n":8374,"joint ":8375,"Russia ":8376,"homes ":8377,"concern ":8378,"ically , ":8379," . In the ":8380,"jona ":8381,"changed ":8382,"changes ":8383,"making it the ":8384,"9th Division ":8385,"9th Avenue ":8386,"influential ":8387,"studies ":8388,"rulers ":8389,"single \" ":8390,"image of ":8391,"Caligul":8392,"corps ":8393,"correspond":8394,"away from ":8395,"Nerva was ":8396,"believed ":8397,"wrot":8398,"gradually ":8399,"Atmosph":8400,"history = = \n":8401,"speed ":8402,"bombard":8403,"1930s ":8404,"itionally , ":8405,"types of ":8406,"course ":8407,"screen":8408,"identifi":8409,"given the ":8410,"Black":8411,"circum":8412,"primitive ":8413,"group , ":8414,"heard ":8415,"a County ":8416,"wrote that ":8417,"areas of ":8418,"Poetry ":8419,"repair":8420,"( 2003 ":8421,"having been ":8422," With ":8423,"i @-@ wan ":8424,"San Lorenzo Head ":8425,"modi":8426,"Mexico , ":8427,"horse ":8428,"bonus ":8429,"Ermit":8430,"missing ":8431,"wards , ":8432,"intended to be ":8433,"assigned to the ":8434,"tropical storm intensity ":8435,"broadcast ":8436,"mbar ":8437,"Palm ":8438,"cannot be ":8439,"cali":8440,"failed to ":8441,"armored cruis":8442,". When the ":8443,"Steinberg ":8444,"praised ":8445,"Portland ":8446,"composed ":8447,"composed of ":8448,"oil and ":8449,"walking ":8450,"injured ":8451,"Major League ":8452,"Major General ":8453,"instead of ":8454,"camera ":8455,"floating ":8456,"merch":8457,"member of ":8458,"Abwehr":8459,"Moren":8460,"Miryang ":8461,"strongest ":8462,"architects ":8463,"Paul ":8464,"led to a ":8465,"happy ":8466,"turns ":8467,"associated with the ":8468,"Ultim":8469,"Victorian ":8470,"\" The Snowmen ":8471,"cheek":8472,"fortun":8473,"dissipated ":8474,"Association ":8475,"growing ":8476,"growth ":8477,"list of ":8478,"Conference ":8479,"Brigad":8480,"aid to ":8481,"harbour ":8482,"vicin":8483,"argues that ":8484,"battalions of ":8485,"organisation ":8486,"All @-@ American ":8487,"Burnham ":8488,"woman ":8489,"aggress":8490,"speaking ":8491,"majority of ":8492,"monumental ":8493,"travel":8494,"Provision":8495,"Domitian 's ":8496,"planes ":8497,"minimal ":8498,"setting up ":8499,"moved to the Museo ":8500,"juan ":8501,"winner ":8502,"was released on ":8503,"objective ":8504,"sources ":8505,"metric ":8506,"mixture of ":8507,"long tons ) ":8508,"Civil War":8509,"Court ":8510,"constantly ":8511,"guitar ":8512,"resulting in ":8513,"hydroxyl":8514,"Poppaea ":8515,"length ":8516,"departed ":8517,"interpret":8518,"somewhat ":8519,"wind shear":8520,"Surviv":8521,"cavalry ":8522,"lawy":8523,"th @-@ century ":8524,"properties ":8525,"attached to the ":8526,"Pasig ":8527,"midnight ":8528,"interest in ":8529,"freedom ":8530,"Michael ":8531,"Tacitus ":8532,"alternative ":8533,"adult ":8534,"girl":8535,"a Rop":8536,"ecause ":8537,"mainly ":8538,"Augustus ":8539,"moderate ":8540,"gliders ":8541,"Vienna ":8542,"Gazan 's division ":8543,"Ironclad ":8544,"Choi @-@ wan ":8545,"Octavia ":8546,"reveals ":8547,"Trajan ":8548,"Bulldogs ":8549,"inhabitants per ":8550,"to join the ":8551,"at an intersection with ":8552,"urt Angle ":8553,"industry ":8554,"Harvard ":8555,"individuals ":8556,"Caesar ":8557,"Airborne Division ":8558,"replica of ":8559,"Vichy French ":8560,"Kutuzov ":8561,"Mendes and ":8562,"NFL ":8563,"those of ":8564,"ometric ":8565,"imetre ( ":8566,"exercis":8567,". Arjona ":8568,"neighbor":8569,"degree ":8570,"lockbuster ":8571,"Independent ":8572,"A.H. ":8573,"quita Rop":8574,"shutout ":8575,"etro Manila ":8576,"fruit ":8577,"excellent ":8578,"Josepha ":8579,"Burnhams ' ":8580,"Athletic ":8581,"Cy Young Award ":8582,"IWGP Heavyweight Championship ":8583,"Nazi ":8584,"Platoon ":8585,"Vickers ":8586,"fonyl":8587,"husband ":8588,"academ":8589,"opportunity ":8590,"exclusively ":8591,"Chan @-@ hom ":8592,"' C ' Squadron ":8593,"significantly ":8594,"themselves ":8595,"pressure of 9":8596,"Quezon City ":8597,"Yanyan ":8598,"infrared ":8599,"obsolet":8600,"specifically ":8601,"Austria @-@ Hungary ":8602,"rarely ":8603,"turov":8604,"wrink":8605,"rovanh ":8606,"Stereospondyli":8607,"stronomical ":8608,"Authority ":8609,"predecess":8610," in ":8611," 3 ":8612," Un":8613," All ":8614,"\" , the ":8615,".C":8616,".0 ":8617,"0 . ":8618,"03 ":8619,"1 . The ":8620,"110 ":8621,"115":8622,"5 @,@ 000 ":8623,"6 . ":8624,"7 . \n":8625,"79 ":8626,"8th ":8627,"Ay":8628,"Ama":8629,"Bal":8630,"Bat":8631,"Barr":8632,"Bank ":8633,"Boul":8634,"C @-@ ":8635,"Cena ":8636,"Cinem":8637,"Citiz":8638,"Dis":8639,"Dur":8640,"Dev":8641,"Dick ":8642,"EA":8643,"Eight ":8644,"E S":8645,"Fer":8646,"Fin":8647,"Gov":8648,"Gord":8649,"Hain":8650,"IN":8651,"Ira":8652,"Its ":8653,"Jac":8654,"Ket":8655,"Kans":8656,"Lim":8657,"Lup":8658,"Laur":8659,"Liss":8660,"Mill":8661,"Moffat ":8662,"NL":8663,"Nig":8664,"Neth":8665,"Ndik":8666,"Pau":8667,"Publ":8668,"Patri":8669,"Ric":8670,"Rem":8671,"Rud":8672,"Randy ":8673,"Sin":8674,"San":8675,"Sab":8676,"Sub":8677,"Squadron":8678,"Sandy ":8679,"Tat":8680,"Tour ":8681,"Time ":8682,"Tondo ":8683,"Ut":8684,"Vol":8685,"Vice ":8686,"Wes":8687,"Wolv":8688,"Ye":8689,"Years ":8690,"ae":8691,"ag ":8692,"aim":8693,"aft ":8694,"bit ":8695,"bout ":8696,"bign":8697,"bought ":8698,"boul":8699,"bank":8700,"cy":8701,"cord":8702,"dly ":8703,"dong ":8704,"eously ":8705,"fear":8706,"fare ":8707,"farm":8708,"federal ":8709,"ho":8710,"hop":8711,"hman ":8712,"hort":8713,"hou ":8714,"hang ":8715,"ied the ":8716,"ires ":8717,"k . ":8718,"ke the ":8719,"kind ":8720,"kept ":8721,"la ":8722,"las ":8723,"ler , ":8724,"liss":8725,"lightly ":8726,"mall":8727,"mist":8728,"na ":8729,"narch":8730,"oo ":8731,"oil":8732,"oom":8733,"os , ":8734,"otion ":8735,"ply ":8736,"pay":8737,"psy":8738,"padd":8739,"punk ":8740,"ram":8741,"rist ":8742,"rhy":8743,"rise ":8744,"rural ":8745,"sin":8746,"sing ":8747,"say ":8748,"sand":8749,"sank ":8750,"sbert ":8751,"social ":8752,"tid":8753,"toon ":8754,"tell ":8755,"tower ":8756,"tub":8757,"ture":8758,"ttalea ":8759,"tension ":8760,"us , and ":8761,"vs":8762,"van ":8763,"vest":8764,"vester ":8765,"wine ":8766,"wond":8767,"xili":8768,"yard":8769,"zen ":8770,"z and ":8771,"ée ":8772,"ć ":8773,"⁄ 3 ":8774,"e that ":8775,"s as ":8776,"s ; ":8777,"thi":8778,"thickn":8779,"d '":8780,"n to ":8781,"erland":8782,"the next day ":8783,"insist":8784,"insul":8785,"insufficient ":8786,"angr":8787,"ansion ":8788,", to ":8789,", for ":8790,", it is ":8791,"ed Lesnar ":8792,"y of the ":8793,"y . \n":8794,"oral ":8795,"ario ":8796,"ale":8797,"alay":8798,"als in ":8799,"alem ":8800,"o 's ":8801,"rebel":8802,"report":8803,"repatri":8804,"onti":8805,"att ":8806,"atively ":8807,"of R":8808,"of that ":8809,"of what ":8810,"enu":8811,"on 8 ":8812,"on 9 ":8813,"and R":8814,"and on ":8815,"er in the ":8816,"er for the ":8817,"ston ":8818,"stop":8819,"stown ":8820,"in H":8821,"in ( ":8822,"in that ":8823,"in two ":8824,"in August ":8825,"in what ":8826,"in 17":8827,"in front of ":8828,"to have been ":8829,"to typhoon ":8830,"ic . ":8831,"ice of ":8832,"ics of the ":8833,"ited the ":8834,"itary ":8835,"itosaur":8836,"itime ":8837,"as much ":8838,"es \" ":8839,"es ; ":8840,"es on the ":8841,"roster ":8842,"acou":8843,"acres ":8844,"an early ":8845,"eler":8846,"eless , ":8847,"ising ":8848,"he and ":8849,"he has ":8850,"he said ":8851,"at its ":8852,"is in ":8853,"or of the ":8854,"espite the ":8855,"asym":8856,"ect , ":8857,"ecraft ":8858,"was form":8859,"was more ":8860,"was develop":8861,"was able to ":8862,"was shot ":8863,"was released ":8864,"was originally ":8865,"amas ":8866,"amid ":8867,"\" of the ":8868,"emon":8869,"emot":8870,"of the American ":8871,"en and ":8872,"@-@ off ":8873,"The Hustler ":8874,"ett":8875,"etro":8876,"etween ":8877,"oward ":8878,"osis ":8879,"imit":8880,"imeon ":8881," . N":8882,"wider ":8883,"undefeated ":8884,"uniqu":8885,"plane ":8886,"plung":8887,"plex ":8888,"evard ":8889,"ids , ":8890,"iday ":8891,"usalem ":8892,"agar":8893,"agents ":8894,"agoon":8895,"ented ":8896,"ents . ":8897,"entering ":8898,"by his ":8899,"that it was ":8900,"that they were ":8901,"chance ":8902,"l and ":8903,"for which ":8904,"for him ":8905,"with M":8906,"with their ":8907,"conserv":8908,"consol":8909,"0 in ) ":8910,"in the town ":8911,"ophil":8912,"his death ":8913,"his career ":8914,"his life ":8915,"riot":8916,"ribe ":8917,"rain , ":8918,"dit ":8919,". The storm ":8920,". The game ":8921,". The system ":8922,". The face ":8923,"beach":8924,"beating ":8925,"1915 ":8926,"exact ":8927,"resour":8928,"ation . \n":8929,"ers = = = \n":8930,"ted by the ":8931,"comes ":8932,"comed":8933,"compon":8934,"compris":8935,"compromis":8936,"apul":8937,"it \" ":8938,"it would be ":8939,"e , was ":8940,"e , \" ":8941,"epp":8942,"eph ":8943,"epospond":8944,") is ":8945,") = \n":8946,"to the east ":8947,"to the south ":8948,"to the northeast ":8949,"tru":8950,"true ":8951,"intent":8952,"intent ":8953,"earl ":8954,"quality ":8955,"ated , ":8956,"ated and ":8957,"percent":8958,"permission ":8959,"perform ":8960,"ley , ":8961,"ate F":8962,"lift ":8963,", and his ":8964,"all of the ":8965," = = E":8966," = = Rec":8967,"ump":8968,"ed to have ":8969,"odd ":8970,"which had been ":8971,"so much ":8972,"utting ":8973,"5 % ":8974,"5 miles ( ":8975,"allies ":8976,"shop":8977,"turb":8978,"its own ":8979,"ions and ":8980,", the JMA ":8981,"portion ":8982,"portion of the ":8983,". Add":8984,"ings in ":8985,"assess":8986,"need to ":8987,"avid ":8988,"avoid":8989,"but was ":8990,"1 million ":8991,"also has ":8992,"not only ":8993,"storms ":8994,"2000":8995,"poetr":8996,"2 and ":8997,"box ":8998,"s of a ":8999,"flag":9000,"worth of ":9001," The film ":9002,"ify ":9003,"brachyop":9004,"content ":9005,"contains ":9006,"containing ":9007,"2016 , ":9008,"forms ":9009,"' \" ":9010,"' B ":9011,"two other ":9012,"blood ":9013,"180 ":9014,"have the ":9015,"er , who ":9016,"disrup":9017,"ook":9018,"secure ":9019,"secretary ":9020,"indig":9021,"Austin ":9022,"ft 8 ":9023,"i and ":9024,"this was ":9025,"from the album ":9026,"ense of ":9027,"es , which ":9028,"ant , ":9029,"ant and ":9030,"ized by ":9031,"Commission":9032,"princ":9033,"ue to ":9034,"awa":9035,"obal of ":9036,"obtain":9037,"obvious ":9038,"armed with ":9039,"larv":9040,". In this ":9041,". In 198":9042,"knoc":9043,"who has ":9044,". He had ":9045,"egocephal":9046,"as a \" ":9047,"as a result of ":9048,"during a ":9049,"istical ":9050,"mark , ":9051,"martial ":9052,"ylvester ":9053,") , and the ":9054,"auxili":9055,"eway ":9056,"cred":9057,"moved in ":9058,"heads are ":9059,"decre":9060,"declin":9061,"striking ":9062,"him a ":9063,"ited for ":9064,"fram":9065,"frag":9066,"frame ":9067,"up , ":9068,"1947 ":9069,"when she ":9070,"surpris":9071,"regul":9072,"regional ":9073,"locations ":9074,"basin ":9075,"basal ":9076,"basis ":9077,"base of the ":9078,"basalt ":9079,"ates and ":9080,"missed ":9081,"C Company ":9082,"ship with ":9083,"coordin":9084,"um of ":9085,"begin":9086,"specios":9087,". Simil":9088,". Bacon ":9089,"river , ":9090,"teen":9091,"serving ":9092,"names to ":9093,"where they ":9094,"British and ":9095,"a sol":9096,"products ":9097,"charity ":9098,"charge ":9099,"compil":9100,"mpan":9101,"starter ":9102,"he was a ":9103,"mile ":9104,"interf":9105,"intermedi":9106,"them to ":9107,"symp":9108,"was the second ":9109,"tympan":9110,"fied ":9111,"de Manila ":9112,"histories ":9113,"it was a ":9114,"period":9115,"traff":9116,"way to ":9117,"directed ":9118,"visited ":9119,"Juan ":9120,"key , ":9121,"guns were ":9122," At the ":9123,"no @-@ ":9124,". Ma":9125,"men and ":9126,"descend ":9127,"area , ":9128,"continuing ":9129,"\" , a ":9130,"\" , which ":9131,"10 @.@ ":9132,"like a ":9133,", but the ":9134,"archb":9135,"refuel":9136,"China , ":9137,"ships ' ":9138,". Over":9139,"January , ":9140,"Conn":9141,"Contin":9142,"work is ":9143,"back to the ":9144,"casem":9145,"temnospondyls are ":9146,"Edwin ":9147,"ton Wander":9148,"officers and ":9149,"Armstrong ":9150,"featuring ":9151,"centre @-@ ":9152,"Sher":9153,"Shell ":9154,"Shane ":9155,"window":9156,"attacked by ":9157,"Navy , ":9158,"signed a ":9159,"week , ":9160,"during which ":9161,"Enter":9162,"evacuate ":9163,"near T":9164,"Gib":9165,"lint ":9166,"northeastward ":9167,"light tanks ":9168,"good":9169,"caused the ":9170,"same day ":9171,"dream ":9172,"extension ":9173,"extensively ":9174,"glass ":9175,"next two ":9176,"took a ":9177,"took part ":9178,"instit":9179,"reviv":9180,"revers":9181,"due to a ":9182,"singer ":9183,"tons . The ":9184,"ertil":9185,"1 @.@ 7 million ":9186,"mph ( ":9187,"Nerva , ":9188,"underwent ":9189,"Gore 's ":9190,"draw ":9191," Most ":9192," Mendes ":9193,"war dead ":9194,"attempting to ":9195,"equest":9196,"expansion ":9197," During ":9198,"performances ":9199,"WWE World ":9200,"WWE Championship ":9201,"troops were ":9202,"moral ":9203,"intense ":9204,"Australia , ":9205,"letter ":9206,"dropp":9207,"music vide":9208,"replace ":9209,"Imagists ":9210,"ease ":9211,"eased ":9212,"version of the ":9213,"Angela 's ":9214,"membered ":9215,"ernal ":9216,"summar":9217,"summer ":9218,"relations ":9219,"raph ":9220,"embassy 's ":9221,"destroyed the ":9222,"Doctor Wh":9223,"military service ":9224,"Center , ":9225,"four @-@ ":9226,"closed ":9227,"support the ":9228,"joining ":9229,"name was ":9230,"homosex":9231,"amphibian ":9232,"considered to be ":9233,"concer":9234,"concern":9235,"Corp":9236,"estimated at ":9237,"in Mexic":9238,"Nero 's death ":9239,"@,@ 000 copies ":9240,"River , ":9241,"u Fu 's ":9242,"demol":9243,"style of ":9244,"stylist":9245,"images ":9246,"ogram ":9247,"ambigu":9248,"postpon":9249,"filming ":9250,"Italy ":9251,"Senate , ":9252,"sett":9253,"gradu":9254,"Atl":9255,"felt the ":9256,"maintained ":9257,"Chart ":9258,"Charlie ":9259,"favour":9260,"under the command of ":9261,"bomb ":9262,"arrival of ":9263,"is also the ":9264,"seen in ":9265,"Geophy":9266,"Recon":9267,"runner ":9268,"proceed":9269,"London , ":9270,"affair":9271,"to give ":9272,"becoming the ":9273,"given by ":9274,"Grand ":9275,"Walter ":9276,"Walker ":9277,"sulfonyl":9278,"gave the ":9279,"marked the ":9280,"New York City ":9281,"suggesting that ":9282,"Metropolitan ":9283,"News ":9284,"temnospondyls have ":9285,"104 ":9286,"Duke ":9287,"Dujuan ":9288,"Poquita Rop":9289,"threat":9290,"anyone ":9291,"repul":9292,"reput":9293,"addition to ":9294,"air @-@ ":9295,"special forces ":9296,"darkness ":9297,"tells ":9298,"4 @.@ 8 ":9299,"label ":9300,"difficult to ":9301,"Philippine Atmosph":9302,"pattern":9303," . His ":9304,"intendo ":9305,"Orbign":9306,"fifteen ":9307,"canv":9308,"failed ":9309,"failure ":9310,"monitors ":9311,"criticiz":9312,"Steiner 's ":9313,"lowest ":9314,"recognized ":9315,"control of the ":9316,"There were ":9317,"Joseph ":9318,"determine ":9319,"Portage to ":9320,"autom":9321,"participated in the ":9322,"Board ":9323,"victories ":9324,"walk ":9325,"walks ":9326,"injury ":9327,"immediate ":9328,"platform ":9329,"magazines ":9330,"denly ":9331,"nominations ":9332,"animal ":9333,"observation ":9334,"Keith ":9335,"Keiser ":9336,"NK 9th Division ":9337,"frequent ":9338,"frequency ":9339,"management ":9340,"vertebr":9341,"Belfast ":9342,"Pound 's ":9343,"numbered ":9344,"ERA in ":9345,"of the Year Award ":9346,"beginning of the ":9347,"below the ":9348,"Association ( ":9349,"pieces ":9350,"Hall of F":9351,"Melanau ":9352,"hulls ":9353,"High School ":9354,"Napole":9355,"atorial ":9356,"1880s ":9357,"surrounding ":9358,"surroundings ":9359,"kilometres ( ":9360,"Holly ":9361,"paint ":9362,"majority ":9363,"s . \" \n":9364,"travell":9365,"circulation ":9366,"Turret ":9367,"realiz":9368,"forehead ":9369,"branch ":9370,"Military ":9371,"Revol":9372,"Theatre ":9373,"barricades were ":9374,"Legislat":9375,"was released in ":9376,"amount of ":9377,"temperat":9378,"half @-@ section ":9379,"Central Command ":9380,"Lieutenant General ":9381,"machine gun ":9382,"Rizal Memorial ":9383,"Southern ":9384,"mixed ":9385,"apparently ":9386,"pool h":9387,"finished the ":9388,"divided into ":9389,"everything ":9390,"vocalist ":9391,"electronic ":9392,"descendants ":9393,". Only ":9394,"revolt ":9395,"bird ":9396,"bank of the ":9397,"driven ":9398,"promoted ":9399,"influenced by ":9400,"aynil":9401,". Among the ":9402,"1890s ":9403,"independent ":9404,"knots ( ":9405,"Johnn":9406,"drummer ":9407,"double @-@ ":9408,"interview ":9409,"Akron Road ":9410,"Frank":9411,"Final Four ":9412,"Julio ":9413,"VIII ":9414,"murder ":9415,"network ":9416,"picked up ":9417,"pounder ":9418,"enhanc":9419,"seeded ":9420,". Most of the ":9421,"Branchiosaur":9422,"DePau":9423,"Light Tank ":9424,"ceremon":9425,"@-@ of @-@ the @-@ ":9426,"spacecraft ":9427,"legislature ":9428,"Florida ":9429,"nominated for Best ":9430,"Murdac":9431,"catapul":9432,"a de Xalap":9433,"osauroidea ":9434,"in the first round ":9435,"engineer ":9436,"Quiap":9437,"headdress is decorated ":9438,"Game Bo":9439,"aerts and ":9440,"massive ":9441,"church":9442,"epoxidation ":9443,"retreat ":9444,"destruction ":9445,"Hyūga ":9446,"analysis ":9447,"negoti":9448,"Craig":9449,"Watson ":9450,"manner ":9451,"touch":9452,"resistance ":9453,"earthquak":9454," = = Pers":9455,"defend the ":9456,"maintenance of ":9457,"Headquart":9458,"satellite imagery ":9459,"districts ":9460,"Carboniferou":9461,"Gloir":9462,"Society ":9463,"judg":9464,"municip":9465,"ninet":9466,"sical and A":9467,"cleophil":9468,"Strik 's ":9469,"carrying ":9470,"War Graves Commission ":9471,"New Zealand ":9472,"Republic of ":9473,"Youngstown ":9474,"Matthew Stirling ":9475,"Services Administr":9476,"anjung Kidurong ":9477,"de Antropología de Xalap":9478,"Meso":9479,"Temnospondyli ":9480,"mobil":9481,"mystery ":9482,"erosion ":9483,"Kirby 's Block Ball ":9484,"Horizon League ":9485,"72nd Tank ":9486,"Dokhturov":9487,"Hayward ":9488,"Jerusalem ":9489,"Rajah ":9490,"mechan":9491,"ocratic ":9492,"flexible ":9493,"rendered ":9494,"Manhattan ":9495,"prototype ":9496,"paleontologist ":9497,"guitarist ":9498,"Praetorian ":9499,".com ":9500,"Budd":9501,"Cocce":9502,"Catholic ":9503,"Parma ":9504,"Party ":9505,"roughly ":9506,"trying to ":9507,"twelve ":9508,"iful ":9509,"eric , Geophy":9510,"subtropical ridge ":9511,"Columbia ":9512,"Shackleton ":9513,"Principal Archit":9514,"Breakout ":9515,"Roger ":9516,"accused of ":9517,"San Cristobal of ":9518,"equivalent ":9519,"circumst":9520,"Abwehr ":9521,"replica of San Lorenzo Head ":9522,"Josepha Petrick ":9523,"wrinkles ":9524,"stronomical Services Administr":9525,"Amaz":9526,"Boulevard ":9527,"Durham ":9528,"Govaerts and ":9529,"Kets":9530,"Kansas ":9531,"Netherland":9532,"Wolver":9533,"principl":9534,"Philippine Atmospheric , Geophy":9535,"Portage to San Cristobal of ":9536,"Turret No. ":9537,"sical and Astronomical Services Administr":9538,"Philippine Atmospheric , Geophysical and Astronomical Services Administr":9539,"Portage to San Cristobal of A.H. ":9540," V":9541," Li":9542," Pl":9543," American Beauty ":9544," Another ":9545,"- and ":9546,"1 @-@ ":9547,"2 , and ":9548,"240 ":9549,"53":9550,"57":9551,"5 . The ":9552,"59 ":9553,"5 , and ":9554,"6 . \n":9555,"66 ":9556,"76":9557,"700 ":9558,"77 ":9559,"91 ":9560,"9 . \n":9561,"Adam":9562,"BE":9563,"Bir":9564,"Bow":9565,"Bill ":9566,"Balt":9567,"Blockbuster ":9568,"Cre":9569,"C , ":9570,"Cop":9571,"Cav":9572,"Cast":9573,"CWG":9574,"Come What ( ever ) May ":9575,"Dy":9576,"Dan":9577,"Dant":9578,"Domin":9579,"Dread":9580,"Drans":9581,"Dutch ":9582,"Dendr":9583,"Eri":9584,"Ele":9585,"ERA":9586,"Eighth ":9587,"FI":9588,"Fal":9589,"Fat":9590,"Gil":9591,"Gerry ":9592,"Hend":9593,"Hud":9594,"Hell ":9595,"Hurricane ":9596,"If ":9597,"JN":9598,"Kl":9599,"Kamp":9600,"Krem":9601,"Koni ":9602,"Lun":9603,"Land":9604,"Line ":9605,"Law":9606,"Later ":9607,"Loy":9608,"Linf":9609,"Little Gidding ":9610,"My":9611,"Mig":9612,"Mir ":9613,"Med":9614,"Merc":9615,"Metro Manila ":9616,"Nin":9617,"Nep":9618,"Night ":9619,"NJP":9620,"Nintendo ":9621,"Old ":9622,"O ) ":9623,"Owen ":9624,"Pop ":9625,"Pitch":9626,"Pa ; ":9627,"Ran":9628,"Rabb":9629,"SM":9630,"Sw":9631,"Scre":9632,"SM ":9633,"Sik":9634,"Tal":9635,"To ":9636,"Tim":9637,"Tun":9638,"Top ":9639,"VI":9640,"Wom":9641,"Way ":9642,"Ware ":9643,"ae , ":9644,"aign":9645,"by":9646,"be , ":9647,"bod":9648,"bow ":9649,"bell":9650,"byp":9651,"ca":9652,"ca ":9653,"crop":9654,"cell":9655,"cran":9656,"categ":9657,"drop":9658,"dub":9659,"dock":9660,"dget ":9661,"dawn ":9662,"ej":9663,"eed ":9664,"eing ":9665,"eant ":9666,"fou":9667,"fish ":9668,"gul":9669,"gation ":9670,"gain ":9671,"gros":9672,"hen":9673,"hired ":9674,"hung ":9675,"iel":9676,"ie , ":9677,"ience ":9678,"iaw":9679,"je":9680,"kne":9681,"kew":9682,"kill ":9683,"les , ":9684,"les and ":9685,"lighting ":9686,"lights ":9687,"lash ":9688,"mal":9689,"ma ":9690,"mess":9691,"mass ":9692,"mountain ":9693,"ng ":9694,"nob":9695,"ned a ":9696,"nought ":9697,"nephe":9698,"ois ":9699,"pin ":9700,"pas":9701,"push ":9702,"ror ":9703,"rated ":9704,"ring":9705,"rvat":9706,"so":9707,"sville ":9708,"sunk ":9709,"sq ":9710,"tone ":9711,"text":9712,"tau ":9713,"u @-@ ":9714,"uality ":9715,"vel":9716,"vision ":9717,"vital ":9718,"wrec":9719,"will":9720,"wants ":9721,"wins ":9722,"xtl":9723,"ys ":9724,"ying the ":9725,"zi ":9726,"ón ":9727,"e to ":9728,"s was ":9729,"s by ":9730,"s also ":9731,"s in a ":9732,"s against ":9733,"thers ":9734,"eric ":9735,"ers , the ":9736,"the next ":9737,"ining ":9738,"ink ":9739,"infin":9740,"inum ":9741,"ina and ":9742,"ineer ":9743,"inosaur":9744,"inople ":9745,"anz":9746,"answ":9747,", P":9748,", with a ":9749,"ed or ":9750,"ed through ":9751,"ori":9752,"orn ":9753,"ority ":9754,"orial ":9755,"oroph":9756,". NY 93 ":9757,"aria ":9758,"aret ":9759,"als and ":9760,"als were ":9761,"alities ":9762,"o . The ":9763,"o Val":9764,"rely ":9765,"renew":9766,"reamWorks ":9767,"onto the ":9768,"onia ":9769,"online ":9770,"atch ":9771,"a P":9772,"a sh":9773,"a team ":9774,"enf":9775,"ene ":9776,"enol":9777,"enlist":9778,"and B":9779,"and re":9780,"and is ":9781,"and had ":9782,"and two ":9783,"and Jim ":9784,"er , and ":9785,"stab":9786,"start":9787,"station":9788,"in February ":9789,"in mid @-@ ":9790,"ing = = = \n":9791,"to M":9792,"to represent ":9793,"to create ":9794,"to become the ":9795,"itt":9796,"itted ":9797,"itarian ":9798,"itude ":9799,"as part of the ":9800,"es . ":9801,"es by ":9802,"es and the ":9803,"es = = \n":9804,"roof ":9805,"roof":9806,"ils ":9807,"ilian ":9808,"acyl":9809,"an important ":9810,"eled ":9811,"he 's ":9812,"he did not ":9813,"at 1":9814,"at their ":9815,"at age ":9816,"is on ":9817,"is still ":9818,"or \" ":9819,"or . \n":9820,"or more ":9821,"esi":9822,"esia ":9823,"asur":9824,"assum":9825,"urs":9826,"urity ":9827,"was dis":9828,"was known ":9829,"was too ":9830,"was considered ":9831,"was eventually ":9832,"amal":9833,"amatic ":9834,"amorph":9835,"\" of ":9836,"\" . His ":9837,"emper":9838,"olly ":9839,"of the D":9840,"of the British ":9841,"@-@ t":9842,"@-@ Claudi":9843,"@-@ class ":9844,"@-@ in @-@ ":9845,"@-@ based ":9846,"adi":9847,"add ":9848,"admit":9849,"etur":9850,"owed ":9851,"impres":9852,"improve ":9853," . In":9854,"plant":9855,"hail":9856,"( 1 ":9857,"usion ":9858,"use the ":9859,"used a ":9860,"used in the ":9861,"agh":9862,"agi":9863,"agin":9864,"agal":9865,"agers ":9866,"agree ":9867,"agency ":9868,"enter":9869,"that she ":9870,"championship":9871,"for M":9872,"for \" ":9873,"for The ":9874,"for all ":9875,"for tropical cycl":9876,"'s second ":9877,"ions . ":9878,"cons":9879,"constra":9880,"eau ":9881,"in the M":9882,"in the month ":9883,"ri ":9884,"rad ":9885,"rail ":9886,"cler":9887,"claw":9888,"distri":9889,"sus ":9890,"forest":9891,". The Commission ":9892,". The Doctor ":9893,". The latter ":9894,". The squadron ":9895,"bedro":9896,"behalf of the ":9897,"1920":9898,"exist ":9899,"thedr":9900,"prosec":9901,"prospec":9902,"abaret ":9903,"frown ":9904,"ation with the ":9905,"ers from ":9906,"ted as ":9907,"budget ":9908,"appoint":9909,"it . The ":9910,"e , so ":9911,"20 , ":9912,"20th century ":9913,"ephen ":9914,") at ":9915,") \" ":9916,") were ":9917,") – ":9918,") is an ":9919,"attor":9920,"ocent ":9921,"earsp":9922,"earning ":9923,"que ":9924,"quir":9925,"quite ":9926,"ight":9927,"ights , ":9928,"persu":9929,"persec":9930,"estate ":9931,"ies of ":9932,"ate of ":9933,"lip":9934,"lius ":9935,"lips ":9936,"liber":9937,"sees ":9938,"see the ":9939," = = Pl":9940," = = Produc":9941,"spap":9942,"spot ":9943,"spok":9944,"spending ":9945,"math ":9946,"master ":9947,"master":9948,"which they ":9949,"are a ":9950,"are also ":9951,"are not ":9952,"are usually ":9953,"ott":9954,"sho":9955,"shell ":9956,"shortly after ":9957,"est in ":9958,"its first ":9959,"ions that ":9960,", the typhoon ":9961,"portion of ":9962,"; however , ":9963,". As of ":9964,". And ":9965,"assass":9966,"park ":9967,"on the M":9968,"on the other ":9969,"but not ":9970,"web":9971,"weal":9972,"storage ":9973,"3 and ":9974,". Her ":9975,"2007 , ":9976,"poor":9977,"their skull":9978,"akot ":9979,"flan":9980,"flour":9981,"flank":9982,"flotilla ":9983," The city ":9984,"gram":9985,"ifying ":9986,"scored ":9987,"for the week ending ":9988,"ed in his ":9989,"ed in this ":9990,"overseas ":9991,"contained ":9992,"side of ":9993,"2014 , ":9994,"comments ":9995,"displaced ":9996,"ance to the ":9997,"– 10 ":9998,"at the same ":9999,"i 's ":10000,"ment and ":10001,"presum":10002,"7 in ) ":10003,"unders":10004,"izing ":10005,"able , ":10006,"after being ":10007,"presents ":10008,"they could ":10009,"8 – ":10010,"8 ) \n":10011,"aware ":10012,"obsc":10013,"ed a number of ":10014," = = = S":10015,"would return ":10016,"armies ":10017,"Argent":10018,": 0":10019,": 4":10020,"minist":10021,"man who ":10022,"as the \" ":10023,"ists , ":10024,"iste T":10025,"marines ":10026,"maritime ":10027,"ylum ":10028,"only two ":10029,"only a few ":10030,"actual ":10031,"headed by a ":10032,"headston":10033,"deceased ":10034,"offer ":10035,"guid":10036,"1940 ":10037,"1944 ":10038,"time to ":10039,"regions ":10040,"steel":10041,"stead":10042,"ongoing ":10043,"cool":10044,"coach":10045,"ations in ":10046,"ations were ":10047,"up to the ":10048,"es and a ":10049,"withdraw ":10050,"( 16":10051,"sub @-@ ":10052,"subtle ":10053,"Manila 's ":10054,"North African ":10055,"teenth ":10056,"temp":10057,"temple ":10058," Several ":10059,"served as a ":10060,"Mari":10061,"namely ":10062,". \" I ":10063,". \" He ":10064,"1990 , ":10065,"year , the ":10066,"film , ":10067,"km ; ":10068,"season . \n":10069,"Road":10070,"ects , ":10071,"starred ":10072,"Three ":10073,"eptions ":10074,"Korean ":10075,"interaction ":10076," In 6":10077,"Philip ":10078,"developing ":10079,"genu":10080,"support of ":10081,"supporting ":10082,"capture ":10083,". Wind":10084,". With":10085,"accept":10086,"acceler":10087,"United Nations ":10088,"Colli":10089,"Column ":10090,"peace":10091,"during the Battle of ":10092,"September , the ":10093,"War of ":10094,"ondo , ":10095,"operates ":10096,"warm ":10097,"war . \n":10098,"forced ":10099,"forces , ":10100,"forces were ":10101,"vision":10102,"life and ":10103,"gunfire ":10104,"game . He ":10105," An ":10106,"slides ":10107,"used for ":10108,"retired ":10109,"describe ":10110,"Bintulu District ":10111,"sisters were ":10112,"ska ":10113,"skill":10114,"green ":10115,"smooth":10116,"talk ":10117,"talking ":10118,"buri":10119,"burial ":10120,"tribu":10121,"published ":10122,"Stevens ' ":10123,"Carthy ":10124,"innings , ":10125,". Or":10126,"Constant":10127,"weapon ":10128,"iversary ":10129,"large @-@ scale ":10130,"Guin":10131,"Guild ":10132,"ships and ":10133,"half":10134,"Eddi":10135,"July 197":10136,"solely ":10137,"arrive ":10138,"because the ":10139,"ed for his ":10140,"ed for its ":10141,") and a ":10142,"designed for ":10143,"feature":10144,"destin":10145,"signed with ":10146,"borough ":10147,". This was ":10148,"is the only ":10149,". A replica of San Lorenzo Head ":10150,"during their ":10151,"heavyweight ":10152,"thirteen ":10153,"Warner ":10154,"ism , ":10155,"advert":10156,"goal":10157,"large , ":10158,"ed from a ":10159,"ichrist ":10160," Temnospondyl":10161,"simply ":10162,"position , ":10163,"USD ":10164,"houses ":10165,"scene in ":10166,"undertaken ":10167,"understand ":10168,"Gore was ":10169,"embassy , ":10170,"death of ":10171,"death and ":10172,"Coach":10173,"note ":10174,"notably ":10175,"roll ":10176,"ful of ":10177,"ironclads , ":10178,"United States , ":10179,"North Korean soldiers ":10180," Heyman ":10181,"Greec":10182,"equal ":10183,"east @-@ ":10184,"ics = = \n":10185,"record of ":10186,"Gibraltar , ":10187,"ergeant ":10188,"culmin":10189,"culture ":10190,"Registr":10191,"explic":10192,"protest ":10193,"barometric ":10194,"s that were ":10195,"represents ":10196,"Foreign ":10197,"Que":10198,"1970 ":10199,"easy ":10200,"easily ":10201,"other":10202,"others , ":10203,". After a ":10204,"called \" ":10205,"collect":10206,"collect ":10207,"collection ":10208,"Adolf ":10209,"Dodd ":10210,"faith":10211,"reluct":10212,"again , ":10213,"destroyed , ":10214,"that he had ":10215,"carrier ":10216,"medium ":10217,"Prim":10218,"fourteen ":10219,"in 186":10220,"support for ":10221,"Vik":10222,"issue of ":10223,". Rifenburg ":10224,"damage to ":10225,"damage was ":10226,"commanded by ":10227,"modern amphibian":10228,"1st Battalion , ":10229,"1st Provisional ":10230,"losing to ":10231,"radi":10232,"single from the album ":10233,"strap ":10234,"watch":10235,"postseason ":10236,"treasure ":10237,"Stein ":10238,"command post ":10239,"communities ":10240,"Emper":10241,"ethn":10242,"agreed to ":10243,"suggest ":10244,"UFC Heavyweight Champion ":10245,"27 @.@ ":10246,"Award for Best ":10247,"favour ":10248,"speed of ":10249,"discovery ":10250,"Jews ":10251,"arrived in ":10252,"is also a ":10253,"sent to the ":10254,"stands ":10255,"urban ":10256,"theme ":10257,"recording ":10258,"returns to ":10259,"Asylum ":10260,"Grammy ":10261,"behind the ":10262,"traditionally ":10263,"handed ":10264,"handful of ":10265,"memorial":10266,"thought that ":10267,"role in ":10268,"planning ":10269,"planned to ":10270,"market ":10271,"New York Times ":10272,"decided that ":10273,"decided that the ":10274,"campaign":10275,"imeter and ":10276,"weakening ":10277,"temnospondyls like ":10278,"Tetrarchs were ":10279,"tracked ":10280,"Commercial ":10281,"crossing the ":10282,"Taft ":10283,"Taeg":10284,"making the ":10285,"motion ":10286,"motif ":10287,"volum":10288,"rock":10289,"newspap":10290,"headdress ":10291,"Mexican ":10292,"neck ":10293,"s , but the ":10294,"RAF ":10295,"ugong @-@ n":10296,"difficulty ":10297,"indicated ":10298,"missions ":10299,"society ":10300,"streak ":10301,"s . In the ":10302,"assignment ":10303,"2010 ) \n":10304,"range and ":10305,"Kuch":10306,"Kuching ":10307,"delivering ":10308,"First World War ":10309,"study ":10310,"tanks , ":10311,"representative ":10312,"combination of ":10313,"saying ":10314,"stated that he ":10315,"adapted to ":10316,"size ":10317,"control of ":10318,"father , ":10319,"you 're ":10320,"advisor ":10321,"wide , ":10322,"extra ":10323,"Antichrist ":10324,"literature ":10325,"Portra":10326,"autical ":10327,"autumn ":10328,"Engineer ":10329,"F Company ":10330,"reviewer ":10331,"A. specios":10332,"Syd":10333,"s . His ":10334,"civilian ":10335,"NK 2nd Division ":10336,"Triassic ":10337,"acitus ":10338,"points ":10339,"met with ":10340,"session ":10341,"vessels ":10342," . During ":10343,"chief ":10344,"progression ":10345,"preparation ":10346,"subjects ":10347,"pitcher in ":10348,"70 – ":10349,"Paul Heyman ":10350,"s . After ":10351,"piece ":10352,"Melor ":10353,"coupl":10354,"island of ":10355,"occurred ":10356,". With the ":10357,"Confuc":10358,"High School":10359,"thinking ":10360,"of which were ":10361,"stages ":10362,"conduct ":10363,"authority ":10364,"majority of the ":10365,"violent ":10366,"favorite ":10367,"analyz":10368,"realistic ":10369,"branch":10370,"F @-@ 5":10371,"Herbert ":10372,"Revolution ":10373,"championship series ":10374,"discussion ":10375,"escape ":10376,"music video for the ":10377,"ography = = \n":10378,"Benjam":10379,"narrow":10380,"opening day ":10381,"innings pitched ":10382,"intensified ":10383,"Trematosaur":10384,"finds ":10385,"hundred":10386,"university ":10387,"universities ":10388,"forecast ":10389,"designated as ":10390,"expected to ":10391,"Dodger pitcher ":10392,"covers ":10393,"covers the ":10394,"daylight ":10395,"middle of the ":10396,"witness ":10397,"promote ":10398,"education ":10399,"fact that ":10400,"9th Infantry Regiment ":10401,"wind shear and ":10402,"risk ":10403,"tainment ":10404,"knots ( 4":10405,"Album ":10406,"Parthian ":10407,"policy ":10408,"Admiralty ":10409,"Bulgaria ":10410,"Frank ":10411,"NCAA tournament ":10412,"wait ":10413,"elements of the ":10414,") . He also ":10415,"Germaniaw":10416,"broke out ":10417,". During his ":10418,"extremely ":10419,"Branch ":10420,"Ill":10421,"Joint ":10422,"Tacitus , ":10423,"ceram":10424,"treatment ":10425,"Louis ":10426,"mainland ":10427,". As a result , ":10428,"blocks ":10429,"conversion ":10430,"Napoleon 's ":10431,"El Am":10432,"aerial ":10433,"fresh ":10434,"hitting ":10435,"instructions ":10436,"flight deck ":10437,"volunteers ":10438,"SmackDown !":10439,"laid down in 18":10440,"losses ":10441,"stretch":10442,"opponents ":10443,"perfect ":10444,"author ":10445,"deliberately ":10446,"Department of ":10447,"Galba ":10448,"Husbands @-@ Hank":10449,"energy ":10450,"pleuro":10451,"evidence ":10452,"Group ":10453,"Dupont ":10454,"Football League ":10455,"DVD ":10456,"Fuiste T":10457,"Gaius ":10458,"Me Home ":10459,"Niagar":10460,"Virgin":10461,"balance ":10462,"nucleophil":10463,"repeat":10464,"spawned a ":10465,"mayor ":10466,"physical ":10467,"Combat ":10468,"accurate ":10469,"tonnes ":10470,"infrastructure ":10471,"Confederate ":10472,"Hill 209 ":10473,"F @-@ 5 to ":10474,"Rollins ":10475,"domest":10476,"sabotage ":10477,"suddenly ":10478,"trouble ":10479,"specimen":10480,"system":10481,"west @-@ northwest ":10482,"appropriate ":10483,"hydraz":10484,"protected by ":10485,"deterior":10486,"Holocaust ":10487,"Creggan ":10488,"Du Fu , ":10489,"Fast Eddie ":10490,"Logan ":10491,"Tuxtl":10492,"male flow":10493,"nature of the ":10494,"roughout the ":10495,"waste ":10496,"oradovich ":10497,"ultaneously ":10498,"external gill":10499,"attracted ":10500,"neutr":10501,"dispatch":10502,"predominantly ":10503,"survive ":10504,"embark":10505,"substantial ":10506,"Junction Road ":10507,"oxygen ":10508,"salamand":10509,"Beijing ":10510,"Gleason ":10511,"Li Bai ":10512,"Sulliv":10513,"Take Me Home ":10514,"ceil":10515,"( also known as San Lorenzo Monument ":10516,"Thanhouser ":10517,"USD ) in damage ":10518,"peaking at ":10519,"Pro Wrestling ":10520,"Major League Baseball ":10521,"Provisionals ":10522,"Ferdin":10523,"Gordon ":10524,"Jacob":10525,"Ndikert ":10526,"Ricardo ":10527,"Sandy Koufax ":10528,"bould":10529,"etroit ":10530,"indigenous ":10531,"sympath":10532,"traffic ":10533,"archbishop":10534,"casemate ":10535,"centre @-@ battery ":10536,"Entertainment ":10537,"equestrian ":10538,"Julio @-@ Claudi":10539,"Praetorian Guard ":10540,"Dransfield ":10541,"Erie ":10542,"gully ":10543,"distribu":10544,"bedroom ":10545,"lips are ":10546,"Constantinople ":10547,"1st Provisional Marine ":10548,"hundreds of ":10549,"Germaniawer":10550,"Fuiste Tú":10551,"Julio @-@ Claudian ":10552," G":10553," Am":10554," / ":10555," Con":10556," There are ":10557,"07 ":10558,"08 ":10559,"1 . In ":10560,"26 @.@ ":10561,"35":10562,"44 ":10563,"425 ":10564,"4.5 ":10565,"51 ":10566,"56 ":10567,"5 , the ":10568,"65":10569,"68":10570,"6 @,@ 000 ":10571,"7 , the ":10572,"84 ":10573,"87 ":10574,"9 . The ":10575,"? \" ":10576,"Asi":10577,"Aff":10578,"A @-@ ":10579,"Agr":10580,"App":10581,"AF ":10582,"Bob":10583,"Blo":10584,"Brock ":10585,"Cy":10586,"Cag":10587,"CI ":10588,"CC ":10589,"Cup ":10590,"Camb":10591,"Critics ":10592,"Des":10593,"Dem":10594,"DA ":10595,"DS ":10596,"Derr":10597,"D and ":10598,"Duck ":10599,"Detroit ":10600,"Eam":10601,"Educ":10602,"Estate ":10603,"Fab":10604,"Fight ":10605,"FI ":10606,"Ford ":10607,"Fort ":10608,"Festival ":10609,"Gn":10610,"Gan":10611,"Go ":10612,"Gos":10613,"Gard":10614,"HP":10615,"HV":10616,"Ha":10617,"His ":10618,"Hear":10619,"High":10620,"Hot ":10621,"Hall":10622,"Hamp":10623,"Howard ":10624,"IP":10625,"Isl":10626,"Iron ":10627,"Jam":10628,"Jep":10629,"Jive ":10630,"Jason ":10631,"Kent ":10632,"Kum":10633,"K @-@ ":10634,"Kopp":10635,"Kurt Angle ":10636,"Krovanh ":10637,"LR":10638,"Lo":10639,"Lev":10640,"Lut":10641,"Long ":10642,"L @-@ ":10643,"Lord ":10644,"Mer":10645,"My ":10646,"Mya ":10647,"MLB ":10648,"NI":10649,"Natur":10650,"ON":10651,"Ou":10652,"Oper":10653,"Oreg":10654,"Pun":10655,"Plin":10656,"Path":10657,"Press ":10658,"Pearl ":10659,"Pugong @-@ n":10660,"Rh":10661,"Ram":10662,"Rul":10663,"Rhy":10664,"Sk":10665,"Sé":10666,"Sat":10667,"Set":10668,"Sha":10669,"Sul":10670,"Squ":10671,"Sam ":10672,"Satur":10673,"Ten ":10674,"Tig":10675,"This ":10676,"Tru":10677,"Tax":10678,"Tomas ":10679,"Vam":10680,"Vind":10681,"Vide":10682,"Ward ":10683,"Whe":10684,"Wood ":10685,"Y , $ ":10686,"Zion":10687,"Zamb":10688,"ZNG":10689,"ather ":10690,"ai ":10691,"bed ":10692,"ble":10693,"bann":10694,"bull":10695,"bishop ":10696,"bigg":10697,"cited ":10698,"cust":10699,"cient ":10700,"crop ":10701,"dim":10702,"dang":10703,"dating ":10704,"dam ":10705,"divers":10706,"date , ":10707,"dated to ":10708,"don 't ":10709,"daily ":10710,"eal ":10711,"eag":10712,"eous ":10713,"eful ":10714,"fing":10715,"fine ":10716,"fact":10717,"fake ":10718,"fishing ":10719,"fun ":10720,"ger":10721,"gan":10722,"ger ":10723,"gro":10724,"gath":10725,"hid":10726,"hect":10727,"hurric":10728,"hole ":10729,"iere ":10730,"iew":10731,"iously ":10732,"jaw":10733,"jaw ":10734,"kg ":10735,"k . The ":10736,"kick":10737,"lb":10738,"lec":10739,"ladd":10740,"lepospond":10741,"my":10742,"mand":10743,"none ":10744,"ni ":10745,"nothing ":10746,"oard ":10747,"obl":10748,"pinn":10749,"pyr":10750,"ric":10751,"rig":10752,"rid":10753,"ry , ":10754,"rating ":10755,"race ":10756,"ridd":10757,"rights ":10758,"routing ":10759,"sear":10760,"sort":10761,"squad":10762,"snow":10763,"sex ":10764,"tin ":10765,"tol":10766,"tex":10767,"tab":10768,"tian ":10769,"tend ":10770,"trem":10771,"ters were ":10772,"tasked ":10773,"tax ":10774,"tooth ":10775,"ues ":10776,"uch ":10777,"vec":10778,"vod":10779,"vary ":10780,"wer ":10781,"wint":10782,"ym ":10783,"yalty ":10784,"“ ":10785,"e as ":10786,"e in the ":10787,"s \n":10788,"s — ":10789,"thetic ":10790,"ered by ":10791,"erely ":10792,"the Japanese ":10793,"the Chinese ":10794,"iny ":10795,"ines":10796,"inform":10797,"inland ":10798,"inside the ":10799,"ann ":10800,"ans , ":10801,"ans and ":10802,", T":10803,", an ":10804,", his ":10805,", Nero ":10806,", Manila ":10807,", then ":10808,", NY 93 ":10809,", while the ":10810,", particularly ":10811,"ed ; ":10812,"ed for the ":10813,"y L":10814,"y Road ":10815,"orh":10816,"ors and ":10817,"orski ":10818,". Com":10819,". Eddie ":10820,". Under ":10821,"arter":10822,"art , ":10823,"alu":10824,"alter":10825,"align":10826,"alys":10827,"alymp":10828,"alry , ":10829,"o D":10830,"refin":10831,"rematch ":10832,"reconstruction ":10833,"oni":10834,"onian ":10835,"ones of ":10836,"ater , ":10837,"atmosph":10838,"of P":10839,"of being ":10840,"of America ":10841,"a S":10842,"a c":10843,"a is ":10844,"a . In ":10845,"a special ":10846,"envision":10847,"on that ":10848,"on 5 ":10849,"on 6 ":10850,"on 30 ":10851,"on record ":10852,"on March ":10853,"on 21 ":10854,"on 27 ":10855,"on display ":10856,"and and ":10857,"and later ":10858,"er \n":10859,"er ( ":10860,"er . \" ":10861,"stay ":10862,"street ":10863,"in N":10864,"in April ":10865,"in Australia ":10866,"in turn ":10867,"in fact ":10868,"in Bacon 's ":10869,"in particular ":10870,"in Eugen":10871,"ing was ":10872,"ing by ":10873,"ing out ":10874,"ing for the ":10875,"ing her ":10876,"ing down ":10877,"to ob":10878,"to face ":10879,"to commemor":10880,"to move ":10881,"to build ":10882,"to strike ":10883,"to Tomas ":10884,"icity ":10885,"ic . \n":10886,"ica and ":10887,"iter":10888,"itel":10889,"itim":10890,"ite , ":10891,"itch ":10892,"itially ":10893,"as many ":10894,"as one of the ":10895,"as one of ":10896,"es : ":10897,"es her ":10898,"roles ":10899,"rovec":10900,"ilians ":10901,"ilding ":10902,"acru":10903,"an ab":10904,"an extratropical ":10905,"ion , ":10906,"al of the ":10907,"eli":10908,"elong ":10909,"elow ":10910,"eleg":10911,"eleven ":10912,"else ":10913,"elago ":10914,"ison":10915,"isation ":10916,"ise , ":10917,"isive ":10918,"ise the ":10919,"isms ":10920,"isco ":10921,"isenh":10922,"he held ":10923,"he never ":10924,"at , ":10925,"at once ":10926,"at SummerSlam ":10927,"is no ":10928,"is found ":10929,"th in the ":10930,"ess and ":10931,"eserpeton ":10932,"asks ":10933," , Lesnar ":10934," , where ":10935," , where he ":10936,"urther ":10937,"urse ":10938,"was so ":10939,"was then ":10940,"was killed ":10941,"iron @-@ ":10942,"amaz":10943,"\" M":10944,"\" an ":10945,"\" ) ":10946,"\" ; he ":10947,"emm":10948,"embe":10949,"ola ":10950,"olas ":10951,"olution of ":10952,"of the Tetrarch ":10953,"of the monument ":10954,"of the Four ":10955,"@-@ S":10956,"@-@ s":10957,"@-@ out ":10958,"@-@ season ":10959,"@-@ going ":10960,"@-@ handed ":10961,"adj":10962,"ado ":10963,"administ":10964,"ives ":10965,"ets , ":10966,"etter ":10967,"etrapod":10968,"ow , ":10969," . Lesnar ":10970," . Bintulu ":10971," . Stevens ":10972," . Kershaw ":10973," . These ":10974,"union":10975,"unit was ":10976,"unarmored ":10977,"plaza ":10978,"hair ":10979,"haik":10980,"idway ":10981,"idn 't ":10982,"( 9":10983,"( K":10984,"( as ":10985,"( \" ":10986,"( $ ":10987,"( see ":10988,"( US $ ":10989,"usen ":10990,"used by ":10991,"usive ":10992,"ussion ":10993,"use of the ":10994,"uses the ":10995,"uskel":10996,"agon":10997,"aging ":10998,"ages and ":10999,"ages of ":11000,"agencies ":11001,"enti":11002,"enter ":11003,"enters the ":11004,"entzi ":11005,"that this ":11006,"that would ":11007,"that Nero ":11008,"champion":11009,"for an ":11010,"for one ":11011,"for two ":11012,"for this ":11013,"for them ":11014,"for $ ":11015,"for use ":11016,"with \" ":11017,"with two ":11018,"with a s":11019,"with at least ":11020,"with CR ":11021,"s , were ":11022,"s , although ":11023,"condem":11024,"consci":11025,"in the US ":11026,"in the area ":11027,"in the National ":11028,"in the 197":11029,"ar and ":11030,"his fourth ":11031,"le , ":11032,"rible ":11033,"raw ":11034,"clade ":11035,"clean ":11036,"clust":11037,"clip ":11038,"dian ":11039,"diag":11040,"diary ":11041,"dible ":11042,"forest ":11043,"fore the ":11044,". The most ":11045,". The British ":11046,". The typhoon ":11047,". The North Koreans ":11048,"bey ":11049,"beach ":11050,"beigh ":11051,"1950 ":11052,"1916 ":11053,"19th century ":11054,"1916 , ":11055,"exil":11056,"theor":11057,"theatr":11058,"proxim":11059,"rest of ":11060,"ressed ":11061,"resolution ":11062,"aboard ":11063,"frozen ":11064,"ation = = = \n":11065,"ers at ":11066,"ers . \n":11067,"ers to the ":11068,"compu":11069,"it and ":11070,"it in ":11071,"it became ":11072,"it was the ":11073,") of ":11074,") in ":11075,") in the ":11076,") was a ":11077,") is a ":11078,") = = = = \n":11079,"attend ":11080,"to the British ":11081,"ocar":11082,"ocal ":11083,"earfl":11084,"ated \n":11085,"ated with ":11086,"ested ":11087,"ley":11088,"had two ":11089,"ate in the ":11090,"lip ":11091,"Stephen ":11092,", and on ":11093,", and by ":11094,"seal":11095,"seduc":11096,"set of ":11097,"all three ":11098,"ed the film ":11099,"ed the same ":11100,"umul":11101,"fired ":11102,"fire of ":11103,"s . Th":11104,"s . All ":11105,"s . One ":11106,"so @-@ ":11107,"5 @-@ ":11108,"ed by many ":11109,"are now ":11110,"est and ":11111,"Chu":11112,"Chang ":11113,"its the ":11114,", the Commission ":11115,"edrich ":11116,". Amb":11117,"assist ":11118,"ender ":11119,"endur":11120," @-@ Spec":11121,"parade ":11122,"parts of ":11123,"aving ":11124,"on the right ":11125,"on the Latin ":11126,"on the night of ":11127,"but also ":11128,"shipped ":11129,"1 ft ) deep":11130,"dead":11131,"s and a ":11132,"weigh ":11133,"3 in ) ":11134,"2003 , ":11135,"Inn":11136,"Inflexible ":11137,"their home ":11138,"2 million ":11139,"2 in ) ":11140,"aka ":11141,"ia \n":11142,"u and ":11143,"flood ":11144,"time":11145,"time of ":11146," The Commission ":11147," The Hustler ":11148,"grac":11149,"ifies ":11150,"scrib":11151,"for the next ":11152,"for the title ":11153,"and the first ":11154,"overl":11155,"overhead ":11156,"overcast ":11157,"ters , ":11158,"renov":11159,"contex":11160,"phr":11161,"phor":11162,"2010":11163,"formed by ":11164,"formed in ":11165,"' and ":11166,"black ":11167,"ead VI ":11168,"commonly ":11169,"commenced ":11170,"disabl":11171,"oom ":11172,"ack , ":11173,"section of ":11174,"section":11175,"at the University of ":11176,"ampa ":11177,"feed":11178,"fewer ":11179,"ordingly ":11180,"essal":11181,"essential ":11182,"has not ":11183,"ensur":11184,"ensland ":11185,"latest ":11186,"after he ":11187,"res ( 1":11188,"pron":11189,"ue to the ":11190,"elled ":11191,"they had ":11192,"they did not ":11193,"8 and ":11194,"8 million ":11195,"ishment ":11196,"awards ":11197,"America , ":11198,"ice . \n":11199,"ea , ":11200," . The following ":11201,"Art ":11202,". In 199":11203,"knock":11204,"who di":11205,"who had been ":11206,". He was the ":11207,"finals ":11208,"s were found ":11209,"Nero was ":11210,"man , ":11211,"most of ":11212,"included in the ":11213,"9 ) \n":11214,"ist , ":11215,"ist and ":11216,"marip":11217,"center of the ":11218,"mont ":11219,"only a ":11220,"only three ":11221,"move the ":11222,"method":11223,"sevent":11224,"severely ":11225,"heads of ":11226,"decade ":11227,"decades ":11228,"strik":11229,"stries ":11230,"offers ":11231,"annually ":11232,"fred ":11233,"franch":11234,"guar":11235,"guard":11236,"y , a ":11237,"y , which ":11238,"1942":11239,"1945 ":11240,"1946 ":11241,"1940 , ":11242,"1943 , ":11243,"when it was ":11244,"Alber":11245,"surren":11246,"over $ ":11247,"save ":11248,"region of ":11249,"depress":11250,"ks . \n":11251,"batters ":11252,"baseball ":11253,"ongs ":11254,"artists ":11255,"ations . \n":11256,"errero ":11257,"structural ":11258,"structure , ":11259,"ble B":11260,"e and a ":11261,"eavy ":11262,". Boulter ":11263,"withdrawn ":11264,"player , ":11265,"teach":11266,"her own ":11267,"served as ":11268,"served as the ":11269,". \" S":11270,"1999 , ":11271,"years of ":11272,"year . \n":11273,"outsid":11274,"outflow":11275,"a sense of ":11276,"produced by ":11277,"productions ":11278,"about a ":11279,"season with a ":11280,"/ 30 @-@ ":11281,"ed , \" ":11282,"made it ":11283,"start , ":11284,"colour":11285,"selectiv":11286,"s , and a ":11287,") . It ":11288,"intercentra ":11289,"ected to ":11290,"French and ":11291,"invit":11292,"ipelago ":11293,"was the last ":11294,"several other ":11295,"added , ":11296,"bergu":11297,"bert , ":11298,"loose ":11299,"loyal ":11300,"tyr":11301,"rank":11302,"complicated ":11303,"under command of ":11304,"tors , ":11305,"metoposaur":11306,"rub":11307,"rug":11308,"ruce ":11309,"history , ":11310,"some were ":11311,"there is a ":11312,"eyew":11313,"millimetre ( ":11314,"September 1 ":11315,"War of the ":11316,"train ":11317,"trapp":11318,". It also ":11319,". It was also ":11320,"operated by ":11321,"warn":11322,"way of ":11323,"writers ":11324,"writing , ":11325,". Though ":11326,"released a ":11327,"these two ":11328,"such a ":11329,"guns . \n":11330,"game 's ":11331," As the ":11332," AFI ":11333,"slid":11334,". Meanwhile , ":11335,"New Japan ":11336,"New Guin":11337,"before a ":11338,"30 / 30 @-@ ":11339,"ologies ":11340,"Bintulu Division ":11341,". Fin":11342,". Following the ":11343,". Furthermore , ":11344,"counter ":11345,"county ":11346,"skel":11347,"skirm":11348,"NY 31 ":11349,"calling ":11350,"s to a ":11351,"did it ":11352,"found it ":11353,"s . The first ":11354,"then @-@ ":11355,". On July ":11356,". On April ":11357,"along with the ":11358,"iculit":11359,"iculture ":11360,"talks ":11361,"Clem":11362,"team 's ":11363,"require ":11364,"October , ":11365,"August , ":11366,"May , ":11367,"burn ":11368,"tribe ":11369,"trials ":11370,"archde":11371,"archipelago ":11372,"refus":11373,"refere":11374,"refers to ":11375,"refuge ":11376,"ification of ":11377,"Carl ":11378,"Carlos ":11379,"four of the ":11380,"governor ":11381,". Operation ":11382,"convicted ":11383,"class of ":11384,"transmission ":11385,"curtain ":11386,"ed with his ":11387,". DreamWorks ":11388,"have been found ":11389,"January 2013":11390,"Parachute ":11391,"Paralymp":11392,"work on ":11393,"back @-@ to @-@ ":11394,"disc ":11395,"Guerrero ":11396,"case of ":11397,"offices ":11398,"Ise @-@ ":11399,"Ise was ":11400,"solv":11401,"sole ":11402,"built by ":11403,"laud":11404,"destination ":11405,"Lester is ":11406,"defens":11407,"defenc":11408,"oxide ":11409,"Kershaw 's ":11410," By ":11411,", which he ":11412,"ects the ":11413,". A number of ":11414,"during this period ":11415,"pitching ":11416,"mansion ":11417,"maneu":11418,"San Franc":11419," On September ":11420," On July ":11421," On June ":11422," On April ":11423,"2nd Engineer ":11424," \" Kiss You \" ":11425,"Whis":11426,"tienz":11427,"Lim ":11428,"Liber":11429,"delor ":11430,"line and ":11431,"[ the ":11432,"extent ":11433,"extend":11434,"extinc":11435,"legitim":11436,"ed as part of the ":11437," Typhoon ":11438,"simple ":11439,"erticulit":11440,"position and ":11441,"mph ( 1":11442,"UB @-@ 1 ":11443,"drive ":11444,"houses and ":11445,"pedic":11446,"much of the ":11447,"much more ":11448,"cross the ":11449,"if he ":11450,"ments , ":11451,"excep":11452,"exception ":11453,"draf":11454,"ketball ":11455,"town":11456,"issoroph":11457,"death , ":11458,"Coastal ":11459,"division 's ":11460,"war and ":11461,"yrac":11462,"yright ":11463,"attempt ":11464,"allows ":11465,"allowed to ":11466,"has been moved to the Museo ":11467,"ironclads of the ":11468,"50 @,@ 000 ":11469,"came to ":11470,"came under ":11471,"although it ":11472,"design , ":11473,"design and ":11474,"design was ":11475,"effectively ":11476,"effici":11477,"residence ":11478,"third @-@ ":11479," Du Fu 's ":11480,"WWE and ":11481,"WWE Undisputed ":11482,"troops to ":11483,"1988 ":11484,"1980s , ":11485,"Brad":11486,"Bridge ":11487,"night on Raw , ":11488,"Plaz":11489,"can 't ":11490,"protect ":11491,"s that are ":11492,"Forc":11493,"Form":11494,"Quart":11495,"sons ":11496,"1976 ":11497,"versions of ":11498,"raised in ":11499,"boats and ":11500,"Austrians ":11501,"April 199":11502,"use in the ":11503,"suffered a ":11504,"Adentr":11505,"faith ":11506,"very well ":11507,"related to ":11508,"relative ":11509,"in his first ":11510,"providing ":11511,"provided by ":11512,"11 November ":11513,"Action ":11514,"III ":11515,"2 @.@ 4 ":11516,". Even ":11517," . At the ":11518,"Japan Meteorological ":11519,"closest ":11520,"Christians ":11521,"depression to Tropical Storm ":11522,"duke ":11523,"home run ":11524,"z de ":11525,"issued a ":11526,"aircraft and ":11527,"difference ":11528,"differences ":11529,"12 – ":11530,"home , ":11531,"General Staff ":11532,"establishment ":11533,"Wilson ":11534,"because it was ":11535,"Corn":11536,". Later , ":11537,"estimated the ":11538,"having a ":11539,"occipit":11540,"modern amphibians ":11541,"1st Airborne Division ":11542,"9th Infantry , ":11543,"south of ":11544,"influence of ":11545,"road and ":11546,"strong winds ":11547,"ended up ":11548,"Royal Air Force ":11549,"went to ":11550,"went into ":11551,"works of ":11552,"involved in ":11553,"North Koreans were ":11554,"000 , ":11555,"urring ":11556,"16 , and ":11557,"corpor":11558,"poster ":11559,"films ":11560,"filmed in ":11561,"Spani":11562,"believe ":11563,"Italy , ":11564,"flew ":11565,"palm":11566,"settlement ":11567,"similar":11568,"similarly ":11569,"members of ":11570,"claims ":11571,"claimed that ":11572,"Operation USA ":11573,"divor":11574,"diverticulit":11575,"rounded ":11576,"rounds per ":11577,"leadership ":11578,"maintain a ":11579,"top of ":11580,"announced ":11581,"discovered in ":11582,"Latim":11583,". Not ":11584,"seen as ":11585,"runway ":11586,"development of the ":11587,"typical ":11588,"Eddie is ":11589,"Scheel":11590,"scream ":11591,"themes of ":11592,"to gain ":11593,"heads from ":11594,"competit":11595,"competitive ":11596,"returned to the ":11597,"tank 's ":11598,"given a ":11599,"Spanish colonial ":11600,"16 to ":11601,"Canal ":11602,"Grade ":11603,"pierc":11604,"mi ) from the ":11605,"13 – ":11606,"handle ":11607,"handling ":11608,"Indiana ":11609,"family of ":11610,"New York State ":11611,"William":11612,"... 100 ":11613,"powder ":11614,"activated ":11615,"re @-@ carv":11616,"how the ":11617,"as well as a ":11618,"( 2000 ":11619,"France and ":11620," Osbert ":11621,"Clara 's ":11622,"ability of the ":11623,"motif":11624,"volcan":11625,"Basketball ":11626,"hours , ":11627,"received an ":11628,"RAAF":11629,"RAAF ":11630,"labyrinthod":11631,"25 @.@ ":11632,"25 @,@ 000 ":11633,"25th Division ":11634,"Health ":11635,"indicates ":11636,"off the coast of ":11637,"central dense ":11638,"McK":11639,"Pola ":11640,"body of the ":11641,"covered in ":11642,"steam engines ":11643,"to reach ":11644,"view of the ":11645,"captured and ":11646,"broadcast":11647,"across the river ":11648,"fifty ":11649,"hosted the ":11650,"leaf ":11651,"deliver ":11652," Rifenburg ":11653,"8 @.@ 0 ":11654,"Palest":11655,"calm ":11656,"honor":11657,"precision ":11658,"students ":11659,"monitor ":11660,"tanks and ":11661,"occupying ":11662,"fleet of ":11663,"D Company ":11664,"adopt ":11665,"recognition ":11666,"Archeg":11667,"Archbishop ":11668,"Archduke ":11669,"examples ":11670,"2 @,@ 500 ":11671,"José":11672,"intersecting ":11673,". There was ":11674,"politically ":11675,"and Sc":11676,"area of responsibility ":11677,"Great Britain ":11678,"shape of the ":11679,"Independiente was ":11680,"machin":11681,"platoon ":11682,"platinum ":11683,"Underground ":11684,"positions and ":11685,"Sarawak , ":11686,"camp ":11687,"gets ":11688,"irement ":11689," . She ":11690,"existence ":11691,"propulsion ":11692,"flooding ":11693,"observed ":11694,"steel armor ":11695,"efforts ":11696,"civilization ":11697,"Keen":11698,"Veracru":11699,"merely ":11700,"change in ":11701,"intensif":11702,"commented that ":11703,"Manchu ":11704,"artillery fire ":11705,"manager ":11706,"Morakot ":11707,"look":11708,"looked ":11709,"vessel ":11710,"reported that ":11711," . During the ":11712,"clear that ":11713,"portray ":11714,"controll":11715,"controlled ":11716,"minute sustained winds of ":11717,"smallest ":11718,"characteristic ":11719,"Dür":11720,"Malay ":11721,"fitz":11722,"University of San":11723,"Bogside and ":11724,"Danube , ":11725,"enemy action ":11726,"idge , ":11727,"exhibited ":11728,"Church":11729,"oxidation of ":11730,"distinctive ":11731,"advantage of ":11732,"tropical cyclone intensity ":11733,"children of ":11734,"Association of ":11735,"Empir":11736,"Seán ":11737,"bulk ":11738,"digital ":11739,"download ":11740,"hulled ":11741,"us and Cassius Dio ":11742,"sailing ":11743,"materials ":11744,"material":11745,"classified it ":11746,"Canada ":11747,"Second World War ":11748,"Captain ":11749,"Capitosaur":11750,"semi @-@ ":11751,"conducted ":11752,"authorities ":11753,"depiction of ":11754,"slightly par":11755,"Charles ' ":11756,"kilometers ":11757,"kilometres ( 1":11758,"Petron":11759,"Sibu":11760,"Siad ":11761,"banding ":11762,"mother , ":11763,"painted ":11764,"reduced the ":11765,"possibility of ":11766,"at the time of the ":11767,"Germany , ":11768,". Although the ":11769,"Schmitt , ":11770,"Scott ":11771,"bag ":11772,"contribution ":11773,"headquarters in ":11774,"details of the ":11775,"positive review":11776,"Theatr":11777,"bias ":11778,"opposing ":11779,"opposite ":11780,"Bintulu . The ":11781,"Island , ":11782,"prevent the ":11783,"Commonwealth War Graves Commission ":11784,"Jack 's ":11785,"hills ":11786,"ogadishu":11787,"meant that ":11788,"disturbed ":11789,"Suetonius , ":11790,"machine gun":11791,"Stone Sour":11792,"38th Infantry ":11793,"Rizal Park ":11794,"Southeast ":11795,"iben ":11796,"metre ( ":11797,"sought to ":11798,"well @-@ defined ":11799,"Academ":11800,"prior to the ":11801,"torpedo tub":11802,"Type UB I":11803,"Treat":11804,"vocals ":11805,"ways in ":11806,"electric ":11807,"raids on ":11808,"ordinary ":11809,"hydrogen ":11810,"Barbar":11811,"Golden ":11812,"Minor ":11813,"Minist":11814,"farm ":11815,"lacked ":11816,"melod":11817,"voters ":11818,"acquir":11819,"emphasis on ":11820,"temnospondyls , such as ":11821,"someone ":11822,"mm ) of ":11823,"athletes ":11824,"low @-@ pass ":11825,"propelled ":11826,"Obj":11827,"Observ":11828,"reinforcements ":11829,"occasional ":11830,"shells ":11831,". American ":11832,"degrees ":11833,"score of ":11834,"independence ":11835,"career , ":11836,"regarded as ":11837,"back of the head ":11838,"policies ":11839,"USS Mon":11840,"Johnson ":11841,"drums ( ":11842,"excavated ":11843,"Victoria Aces ":11844,"Ezra Gre":11845,"Final Four":11846,"learn":11847,"committe":11848,"encounter ":11849,"Germanic":11850,". For example , ":11851,"required to ":11852,"extreme ":11853,"responsibilities ":11854,"strengthening ":11855,"Robert Boulter ":11856,"Earth ":11857,"Preclassic ":11858,"fastball ":11859,"stood at ":11860,"applic":11861,"edge of ":11862,"shipping ":11863,"2011 . \n":11864,"southeast of ":11865,"breech @-@ load":11866,"legislative ":11867,"derived ":11868,"Prince of ":11869," . They were ":11870,"transported ":11871,"commissioned ":11872,"No. 20 Squadron 's ":11873,"Lowell ":11874,"Piz ":11875,"T @-@ number ":11876,"a de los ":11877,"eless , the ":11878,"frogs and ":11879,"costum":11880,"capitul":11881,"normal ":11882,"normally ":11883,"engine":11884,"approached ":11885,"Vienna , ":11886,"ft ) high by 1 @.@ ":11887,"student I":11888,"Malaysi":11889,"environment ":11890,"Egyptian ":11891,"Crim":11892,"freshman ":11893,"square ":11894,"church ":11895,"on the Billboard 200":11896,"begin to ":11897,"airstrip ":11898,"substitute ":11899,"processing ":11900,"focus on ":11901,"peaked at No. ":11902,"View of the World from ":11903,"muzzle vel":11904,"Binondo ":11905,"eur ":11906,"lot of ":11907,"lasted ":11908,"° C ":11909,"anthology ":11910,"stretch ":11911,"at WrestleMania XX":11912,"expressed ":11913,"abbot ":11914,"earthquake ":11915,"parallel":11916,"premier ":11917,"frigates ":11918,"surgery ":11919,"Marcus Cocce":11920,"went on to ":11921,"maintenance ":11922,"preceding ":11923,"forecasts ":11924,"Carboniferous ":11925,"CDA ":11926,"Gomes ":11927,"LNG ":11928,"Middle East ":11929,"Super ":11930,"persisted ":11931,"Institute ":11932,"popularity ":11933,"barangays ":11934,"humanity ":11935,"transportation ":11936,"Group":11937,"Hamilcar ":11938,"Alexander ":11939,"Bolton Wander":11940,"Bahamas ":11941,"Está":11942,"Field Marsh":11943,"Lower Mountain Road ":11944,"Selfr":11945,"Tracy ":11946,"false ":11947,"rejected ":11948,"( hPa ; ":11949,"Arthur ":11950,". Before ":11951,"classification ":11952,"barbett":11953,"barbette ":11954,"announced that Lesnar ":11955,"Pacific , ":11956,"certified gold ":11957,"security detail ":11958,"constant k ":11959,"enjoyed ":11960,"instruments ":11961,"incorporated ":11962,"Jane and ":11963,"funeral ":11964,"rhachitomous ":11965,"argument ":11966,"conclusion of the ":11967,"suicid":11968,"absence ":11969,"ocean @-@ going ":11970,"storyline ":11971,"has also been ":11972,"augh ":11973,"remainder of the ":11974,"Flavian ":11975,"familiar ":11976,"rate of fire ":11977,"Albums chart ":11978,"candidate ":11979,"vegetation ":11980,"CH @-@ 53":11981,"Denbeigh ":11982,"Otho ":11983,"duties ":11984,"heteroc":11985,"wrought ":11986,"to do so ":11987,"uniform ":11988,"habilit":11989,"desire to ":11990,"overwhelm":11991,"' A ' Squadron ":11992,"Leading ":11993,"Armenia ":11994,"Hitler 's speech ":11995,"upgraded the depression to Tropical Storm ":11996,"Bulgarian Navy ":11997,"People 's ":11998,"Hugh Durham ":11999,"New South Wales ":12000,"horizontal band ":12001,"Callagh":12002,"Friedrich ":12003,"Karl ":12004,"Porter ":12005,"Wallace ":12006,"nevertheless ":12007,"xaziridines ":12008,"ornaments ":12009,"amateur ":12010,"'s 100 Years ":12011,"column":12012,"Professional ":12013,"mbar ( hPa ; ":12014,"Palm Beach ":12015,"oil and gas ":12016,"floating batteries ":12017,"Ultimate F":12018,"Brigade , ":12019,"inhabitants per km2 ":12020,"neighborhood ":12021,"predecessor ":12022,"Hainan ":12023,"Iraq ":12024,"Limnarch":12025,"Public ":12026,"Patriots ":12027,"Remembr":12028,"Weser ":12029,"aeus ":12030,"cycle ":12031,"horticultural ":12032,"kind of ":12033,"psych":12034,"vestig":12035,"thickness of ":12036,"to typhoon status ":12037,"asymmetric ":12038,"unique ":12039,"consolid":12040,"resourc":12041," = = Reception = = \n":12042,"flagship ":12043,"ft 8 in ) ":12044,"knocked ":12045,"decreas":12046,"intermediate ":12047,"tympanum ":12048,". Major ":12049,"institut":12050,"in Mexico ":12051,"Atlantic ":12052,"Reconstruc":12053,"repulsed ":12054,"reputation ":12055,"Legislative ":12056,"temperatures ":12057,"picked up his ":12058,"DePauw ":12059,"Game Boy ":12060," = = Personal ":12061,"Headquarters ":12062,"72nd Tank Battalion ":12063,"Ketsana ":12064,"Dreadnought ":12065,"Eleu":12066,"Hudson ":12067,"Linfa ":12068,"Pitcher of the ":12069,"Times , ":12070,"grossed ":12071,"agiosaur":12072," = = Plot ":12073," = = Production = = \n":12074,"shoot ":12075,"wealthy ":12076,"poorly ":12077,"Column , ":12078,"smoothbore ":12079,"goalkeep":12080,"barometric pressure of 9":12081,"Queensland ":12082,"Adolf Hitler ":12083,"single from the album , \" ":12084,"strap descend":12085,"Kuching , ":12086,"El Amor ":12087,"repeatedly ":12088,"domestic ":12089,"1st Provisional Marine Brigade ":12090,"Germaniawerft ":12091,"Cagayan ":12092,"Gospi":12093,"HP , $ ":12094,"Kumrovec":12095,"Koppu ":12096,"Luty":12097,"Natural ":12098,"Sébergu":12099,"Square ":12100,"Wheel":12101,"Zionsville ":12102,"dimens":12103,"hurrican":12104,"lepospondyl":12105,"tasked with ":12106,"etrapoda ":12107,"computer ":12108,"Chang '":12109,". Ambassador ":12110,"New Japan Pro Wrestling ":12111,"back @-@ to @-@ back ":12112,"occipital ":12113,"Scheelea ":12114,"labyrinthodon":12115,"central dense overcast ":12116,"University of Santo Tomas ":12117,"Seán Keen":12118,"muzzle veloc":12119,"Marcus Cocceius ":12120,"'s 100 Years ... 100 ":12121," J":12122," Al":12123," ) . ":12124," Bintulu ":12125," Cl":12126," Nero 's ":12127," Lesnar 's ":12128," Independiente ":12129,"'d ":12130,"- N":12131,"0th ":12132,"0s . The ":12133,"1 , and ":12134,"11 @.@ ":12135,"125 ":12136,"100":12137,"114":12138,"2 . The ":12139,"230 ":12140,"23 , ":12141,"21 , the ":12142,"39":12143,"380 ":12144,"49 ":12145,"67":12146,"6 @-@ ":12147,"68 , ":12148,"77":12149,"72 ":12150,"8 . \n":12151,"9 , the ":12152,"Ap":12153,"Az":12154,"Aqu":12155,"AD ":12156,"Arab":12157,"AP ":12158,"Asian ":12159,"AD ) ":12160,"After":12161,"Ahen":12162,"Atienz":12163,"Bent":12164,"Bob ":12165,"Bishop":12166,"CE":12167,"Cu":12168,"Cul":12169,"Coun":12170,"Cay":12171,"Cann":12172,"CS ":12173,"Coh":12174,"Cub":12175,"Crown ":12176,"Don ":12177,"Dam":12178,"Div":12179,"Doug":12180,"Day":12181,"Dead ":12182,"Dean ":12183,"Doh":12184,"Daily ":12185,"Dissoroph":12186,"ER":12187,"Etau ":12188,"Far ":12189,"Five ":12190,"FA ":12191,"Fitts ":12192,"Face":12193,"Gor":12194,"Gas ":12195,"Gir":12196,"Gold ":12197,"Good ":12198,"Games ":12199,"HA":12200,"HS":12201,"Hel":12202,"H , ":12203,"Hul":12204,"Haw":12205,"Hart":12206,"Hunt ":12207,"Hed PE ":12208,"IT":12209,"IV ":12210,"Iban ":12211,"Ivan ":12212,"Jup":12213,"JCAA ":12214,"Krist":12215,"Knight ":12216,"Kinberg ":12217,"LB":12218,"Ly":12219,"Lag":12220,"Lif":12221,"Lund":12222,"Lau":12223,"Lick":12224,"Mol":12225,"Mos":12226,"Mov":12227,"Map":12228,"Main ":12229,"Medical ":12230,"Maynil":12231,"Nu":12232,"Nac":12233,"Nang":12234,"Nam ":12235,"Next ":12236,"Nation":12237,"Nich":12238,"NBA ":12239,"OP":12240,"OV":12241,"Ok":12242,"Ot":12243,"Ox":12244,"Out ":12245,"Of the ":12246,"Pu":12247,"Pen":12248,"Pil":12249,"Pres":12250,"Pand":12251,"Poll":12252,"Phel":12253,"Prem":12254,"Penn":12255,"Pamb":12256,"PM ":12257,"Punk ":12258,"Payn":12259,"Pelt":12260,"Ry":12261,"Red ":12262,"Ren":12263,"Rad":12264,"Rain":12265,"Rhachitom":12266,"SN":12267,"Ser":12268,"Shel":12269,"Syn":12270,"Six":12271,"Sampaloc":12272,"Test ":12273,"Tren":12274,"Tran":12275,"Tower ":12276,"Tim ":12277,"Today ":12278,"Teleg":12279,"UPM ":12280,"VII ":12281,"Wob":12282,"Water ":12283,"Woom":12284,"WBE":12285,"Year":12286,"Yap ":12287,"Z ":12288,"añ":12289,"ait":12290,"ais":12291,"aint":12292,"aeg":12293,"bid ":12294,"bau":12295,"bond ":12296,"cad":12297,"call ":12298,"cod":12299,"card ":12300,"crip":12301,"cany":12302,"croc":12303,"catal":12304,"don ":12305,"ded":12306,"dham ":12307,"dimin":12308,"dedic":12309,"didn 't ":12310,"een":12311,"eigh":12312,"eive ":12313,"eet ":12314,"eplay ":12315,"eboard ":12316,"fly ":12317,"fate ":12318,"fish":12319,"fans ":12320,"fall , ":12321,"fuel":12322,"funn":12323,"function ":12324,"fasc":12325,"festiv":12326,"fosis ":12327,"fertil":12328,"gn":12329,"gat":12330,"gate ":12331,"gang":12332,"hes":12333,"hur":12334,"her , ":12335,"hero ":12336,"hidd":12337,"hospit":12338,"hook":12339,"ij":12340,"ias ":12341,"iet":12342,"iation ":12343,"i . The ":12344,"iah ":12345,"ior , ":12346,"iTun":12347,"ius and Cassius Dio ":12348,"jima ":12349,"ke of ":12350,"k , and ":12351,"lan":12352,"lak":12353,"log":12354,"lane ":12355,"mm":12356,"men":12357,"mem":12358,"mol":12359,"mig":12360,"mere ":12361,"mut":12362,"mud":12363,"meg":12364,"mood ":12365,"mith ":12366,"map ":12367,"mandy ":12368,"medic":12369,"nest ":12370,"native ":12371,"ness of ":12372,"nickn":12373,"nik ":12374,"nautical ":12375,"og ":12376,"odi":12377,"oked ":12378,"pel":12379,"pir":12380,"pion":12381,"pill":12382,"pound ":12383,"pull":12384,"pray":12385,"red , ":12386,"ring of ":12387,"rams ":12388,"ses ":12389,"sir":12390,"sight ":12391,"sage ":12392,"syl":12393,"sagg":12394,"squar":12395,"sembly ":12396,"tiv":12397,"tag":12398,"tall ":12399,"tut":12400,"tass":12401,"text ":12402,"topp":12403,"tenth ":12404,"task":12405,"u . ":12406,"ufac":12407,"us , the ":12408,"vit":12409,"vac":12410,"vand":12411,"vacu":12412,"vert":12413,"wis":12414,"wan , ":12415,"wise ":12416,"ye ":12417,"yea":12418,"yod":12419,"ya , ":12420,"yalt":12421,"youth":12422,"£ ":12423,"ín ":12424,"ǜshi":12425,"e by ":12426,"e for the ":12427,"e Rul":12428,"thm ":12429,"eras":12430,"ered to ":12431,"erod":12432,"erge ":12433,"ered in ":12434,"erup":12435,"erted to ":12436,"erik":12437,"ermos":12438,"erorh":12439,"the new ":12440,"the Senate ":12441,"the scene ":12442,"the entire ":12443,"ino":12444,"inous ":12445,"inking ":12446,"insur":12447,"iness ":12448,"income ":12449,"inclus":12450,"inser":12451,"inher":12452,"inks and ":12453,"ano ":12454,"anan ":12455,"anet ":12456,", G":12457,", most ":12458,", Stevens ":12459,", making ":12460,", Best ":12461,", having ":12462,", despite ":12463,", though the ":12464,"ed against ":12465,"y that ":12466,"ors":12467,"ors of ":12468,"oria ":12469,"ors were ":12470,"ors . \n":12471,"orfosis ":12472,". ( ":12473,". Lester 's ":12474,". Col. Fitts ":12475,"ara ":12476,"arm ":12477,"arge ":12478,"alco":12479,"als , and ":12480,"aleks ":12481,"alik ":12482,"o \" ":12483,"rear":12484,"reality ":12485,"repris":12486,"reactivity ":12487,"remarked ":12488,"onn ":12489,"ats and ":12490,"atus ":12491,"ate , and ":12492,"atograph":12493,"of guns ":12494,"of Nerva 's ":12495,"a St":12496,"a , and ":12497,"a week ":12498,"a great ":12499,"enth":12500,"enes ":12501,"enec":12502,"ened to ":12503,"enship ":12504,"enlarg":12505,"enstein ":12506,"enau ":12507,"on and ":12508,"on The ":12509,"on 2 ":12510,"on 10 ":12511,"on 20 ":12512,"on loan ":12513,"on behalf of the ":12514,"and V":12515,"and one ":12516,"and also ":12517,"and more ":12518,"and several ":12519,"and Aldington ":12520,"and measures 1 @.@ ":12521,"er on ":12522,"er to the ":12523,"er than ":12524,"g in ":12525,"stak":12526,"stations ":12527,"stadium ":12528,"stuck ":12529,"stipul":12530,"stegocephal":12531,"in G":12532,"in K":12533,"in con":12534,"in one ":12535,"in Am":12536,"in other ":12537,"in ) . The ":12538,"in 16":12539,"in Derry ":12540,"in London ":12541,"in Rome ":12542,"in Boston ":12543,"in Spain ":12544,"in Vietnam ":12545,"in Vill":12546,"in 115":12547,"ous , ":12548,"outr":12549,"outs and ":12550,"ing for ":12551,"ing their ":12552,"ing Indu":12553,"ing cheek":12554,"to find ":12555,"to develop ":12556,"to challenge ":12557,"to take the ":12558,"to fill ":12559,"to avoid ":12560,"to prepare ":12561,"to Miryang ":12562,"icas ":12563,"ichi":12564,"iction ":12565,"ictor ":12566,"icism ":12567,"itage ":12568,"as of ":12569,"as , and ":12570,"as ' ":12571,"as if ":12572,"as possible ":12573,"es with the ":12574,"es between ":12575,"es during the ":12576,"es \" , ":12577,"rob":12578,"rot":12579,"role of ":12580,"rothor":12581,"illy ":12582,"ilia ":12583,"iles , ":12584,"ilian":12585,"acr":12586,"achis ":12587,"ace of ":12588,"an H":12589,"an to ":12590,"an interview ":12591,"elf ":12592,"ised the ":12593,"iseum ":12594,"he felt ":12595,"at H":12596,"at P":12597,"at this ":12598,"at Butler ":12599,"at No. ":12600,"at Dürenstein ":12601,"is more ":12602,"is about ":12603,"is very ":12604,"or a ":12605,"or even ":12606,"or Series ":12607,"escor":12608,"aside ":12609,"asco ":12610,"ect of ":12611,"ecilians ":12612," , while ":12613," , however , ":12614,"ura ":12615,"urst":12616,"was an ":12617,"was that ":12618,"was only ":12619,"was complet":12620,"was announc":12621,"was formed ":12622,"was appointed ":12623,"was upgrad":12624,"was award":12625,"was chosen ":12626,"was transferred to the ":12627,"omfield ":12628,"omorph":12629,"ament":12630,"amorfosis ":12631,"\" at the ":12632,"\" . M":12633,"emble ":12634,"emistr":12635,"emerge ":12636,"of the first ":12637,"of the time ":12638,"of the US ":12639,"of the town ":12640,"of the 1st ":12641,"of the Philippines , ":12642,"of the crater ":12643,"en route ":12644,"@-@ American ":12645,"@-@ made ":12646,"@-@ down ":12647,"@-@ long ":12648,"@-@ language ":12649,"@-@ Admiral ":12650,"ador":12651,"adian ":12652,"adequ":12653,"admir":12654,"The Undertak":12655,"owned ":12656,"owards the ":12657,"ima , ":12658,"iments ":12659,"imerorh":12660," . All ":12661," . Although ":12662," . With ":12663," . Only ":12664,"unusual ":12665,"plet":12666,"plus ":12667,"plating ":12668,"plastic ":12669,"plagiosaur":12670,"haw , ":12671,"evin ":12672,"eval ":12673,"evere ":12674,"evil ":12675,"evok":12676,"evident ":12677,"idents ":12678,"( W":12679,"( a ":12680,"( for ":12681,"( 196":12682,"used on ":12683,"used by the ":12684,"ages in ":12685,"ente ":12686,"entec":12687,"ents of ":12688,"entert":12689,"by S":12690,"by @-@ ":12691,"by Moren":12692,"that his ":12693,"that will ":12694,"that it is ":12695,"chanc":12696,"for most ":12697,"'s former ":12698,"'s main ":12699,"'s performance ":12700,"with other ":12701,"with three ":12702,"with her ":12703,"with six ":12704,"with winds of ":12705,"s , he ":12706,"s , was ":12707,"s , with ":12708,"s , under ":12709,"eab":12710,"in the final ":12711,"in the northern ":12712,"in the Museo ":12713,"in the form of ":12714,"opin":12715,"ophi":12716,"his family ":12717,"his father ":12718,"riev":12719,"rific":12720,"rast":12721,"raid ":12722,"claus":12723,"cloth":12724,"dial":12725,"diamet":12726,"su ":12727,"suplex":12728,". The two ":12729,". The team ":12730,". The JTWC ":12731,". The head is ":12732,". The sisters were ":12733,"ounce ":12734,"behalf ":12735,"1917 ":12736,"1918 ":12737,"exchang":12738,"theory ":12739,"profil":12740,"prohib":12741,"proper ":12742,"resc":12743,"resolv":12744,"absent ":12745,"abilities ":12746,"abdic":12747,"ability of ":12748,"ation , the ":12749,"ers which ":12750,"ers Set":12751,"from their ":12752,"aph":12753,"it a ":12754,"it had ":12755,"e , and the ":12756,") for ":12757,") are ":12758,"attale":12759,"to the S":12760,"to the United Kingdom ":12761,"to the throne ":12762,"to the base of the ":12763,"och ":12764,"trunc":12765,"truck ":12766,"intim":12767,"interr":12768,"quant":12769,"que @-@ ":12770,"ighter ":12771,"perpet":12772,"estates ":12773,"had dis":12774,"ours ":12775,"ts a ":12776,"liot ":12777,"liament ":12778,"ic \" ":12779,"Star":12780,"Stand":12781,"St. L":12782,"Steph":12783,", and were ":12784,", and he was ":12785,", and even ":12786,"stry ":12787,"strange ":12788,"p '":12789,"seed in the ":12790,"set the ":12791,"seek ":12792,"all but ":12793," = = Rel":12794,"ed the US ":12795,"ump ":12796,"umph":12797,"umber":12798,"spots ":12799,"fire @-@ ":12800,"odvod":12801,"s . There ":12802,"s . Each ":12803,"e of this ":12804,"rect":12805,"reception = = \n":12806,"receptions ":12807,"recurring ":12808,"5 and ":12809,"5 ) ":12810,"5 in ) ":12811,"ed by an ":12812,"allas , ":12813,"are \" ":12814,"are used ":12815,"are commemor":12816,"otill":12817,"shir":12818,"share ":12819,"shunt ":12820,"sheet ":12821,"out a ":12822,"one was ":12823,"one another ":12824,"Chadian ":12825,"ture of the ":12826,"its original ":12827,", the British ":12828,", the film ":12829,", the French ":12830,", the US ":12831,", the National ":12832,", the depression ":12833,", the North Koreans ":12834,"; a ":12835,"; in ":12836,"; for ":12837,"; his ":12838,"; these ":12839,"; she ":12840,"; Mendes ":12841,"edsport ":12842,". Acc":12843,"ingen ":12844,"ings . ":12845,"ritical ":12846,"endo ":12847,"endary ":12848," @-@ year @-@ old ":12849,"parad":12850,"parents ":12851,"neo @-@ ":12852,"on the north ":12853,"1 billion ":12854,"1 minute winds of ":12855,"deed":12856,"defl":12857,"aint ":12858,"ained the ":12859,"post , ":12860,"not the ":12861,"first half ":12862,"2003":12863,"2002 – ":12864,"Indon":12865,"poison":12866,"their liv":12867,"their armor ":12868,"2 Bas":12869,"2 km ) ":12870,"2 miles ( ":12871,"board":12872,"akalik ":12873,"flor":12874,". Tur":12875,". Tropical ":12876,"timber ":12877,"time , and ":12878," The following ":12879,"any of the ":12880,"grade ":12881,"scop":12882,"desert ":12883,"for the Commission ":12884,"and the other ":12885,"and the United States ":12886,"ed in 200":12887,"terbur":12888,"terti":12889,"terrible ":12890,"us from ":12891,"us in 18":12892,"bron":12893,"brand ":12894,"renumber":12895,"contrast":12896,"phen":12897,"sidel":12898,"side @-@ ":12899,"sides of the ":12900,"formed the ":12901,"' death ":12902,"two were ":12903,"two main ":12904,"two years ":12905,"two games ":12906,"blu":12907,"blical ":12908,"blown ":12909,"183":12910,"1800 ":12911,"have no ":12912,"display":12913,"disappear":12914,"ance . \n":12915,"– 3 ":12916,"– present ":12917,"– 1000 ":12918,"age was ":12919,"acks ":12920,"ional de Antropologí":12921,"6 in ) ":12922,"inders ":12923,"at the embassy ":12924,"at the end of ":12925,"feat ":12926,"fear ":12927,"ack 2 Bas":12928,"ft 3 in ) ":12929,"i R":12930,"order , ":12931,"essentially ":12932,"this , the ":12933,"preh":12934,"prey ":12935,"prequ":12936,"7 – ":12937,"has suffered ":12938,"es , such as ":12939,"unders Set":12940,"ized in ":12941,"ize the ":12942,"ization of ":12943,"after an ":12944,"after Nero 's death ":12945,"print":12946,"pro @-@ ":12947,"preserve ":12948,"anger ":12949,"angular ":12950,"obar":12951,"Manag":12952,"Manufac":12953,"ice and ":12954,"Analys":12955,"would face ":12956,"would not be ":12957,"army and ":12958,"Arn":12959,". In March ":12960,"knock ":12961,"vibr":12962,"viously ":12963,"place , ":12964,"s were not ":12965,": a ":12966,": his ":12967,"Nero \" ":12968,"Nero . \n":12969,"minster ":12970,"including a ":12971,"cargo ":12972,"carbon ":12973,"cartoon ":12974,"center , ":12975,"mond ":12976,"creative ":12977,"ante":12978,"ans to ":12979,"headlin":12980,"headband ":12981,"decline ":12982,"decisive ":12983,"stripped ":12984,"offering ":12985,"offered the ":12986," , the JTWC ":12987,"anna ":12988,"anniversary ":12989,"rosaur":12990,"encount":12991,"guil":12992,"y , who ":12993,"ups , ":12994,"upset ":12995,"upward":12996,"uper St":12997,"1940":12998,"a , who ":12999,"when it ":13000,"when he was ":13001,"aster ":13002,"astical ":13003,"Alfred ":13004,"surrendered ":13005,"ancy ":13006,"over land ":13007,"face and ":13008,"faced off ":13009,"facilit":13010,"end @-@ ":13011,"I was ":13012,"depict ":13013,"three years ":13014,"three squadron":13015,"location of the ":13016,"bases ":13017,"based in ":13018,"steering ":13019,"pitch ":13020,"ship @-@ of @-@ the @-@ ":13021,"coal ":13022,"into his ":13023,"artak ":13024,"built , ":13025,"ations of the ":13026,"ations with ":13027,"ations in the ":13028,"spector ":13029,"spective ":13030,"puzz":13031,"ill @-@ ":13032,"up his ":13033,"ning Center ":13034,". She was ":13035,". By the ":13036,"played in ":13037,"playoff ":13038,"rivals ":13039,"rivalry ":13040,"submission ":13041,"submerg":13042,"Manila is ":13043,"Manila is the ":13044,"North R":13045,"North American ":13046,"teamm":13047,"templ":13048," Some ":13049," Since ":13050," Sports ":13051," Simeon ":13052,"Marco":13053,"names of ":13054,". \" M":13055,"000 UTC ":13056,"British airborne ":13057,"1990":13058,"1995 ":13059,"1994 ":13060,"1991 , ":13061,"1998 , ":13062,"years of the ":13063,"outstanding ":13064,"producing ":13065,"producing the ":13066,"produced in ":13067,"produced a ":13068,"about to ":13069,"about his ":13070,"charter ":13071,"season : ":13072,"ectic":13073,"ection":13074,"ecting the ":13075,"by the US ":13076,"transl":13077,"city , ":13078,"ement of ":13079,"compens":13080,"ick , ":13081,"made by ":13082,"made his first ":13083,"Through ":13084,"Thurst":13085,"he was \" ":13086,"against Nero ":13087,") . F":13088,") . They ":13089,") . This ":13090,"known from ":13091,"known as \" ":13092,"known for his ":13093,"apped ":13094,"interned ":13095,"follows ":13096,"partn":13097,"became extratropical ":13098,"later that day ":13099,"genus , ":13100,"was the third ":13101,"addy ":13102,"adding ":13103,"added to ":13104,"suppor":13105,"both to ":13106,"ed on 23 ":13107,"old and ":13108,"loan":13109,"lobe ":13110,". Willi":13111,". While the ":13112,"acces":13113,"accus":13114,"accept ":13115,"according to the ":13116,"accession ":13117,"Ocean":13118,"fire":13119,"under construction ":13120,"tors ":13121,"de B":13122,"de L":13123,"de T":13124,"de San ":13125,"historic ":13126,"history and ":13127,"continent ":13128,"Colomb":13129,"Coliseum ":13130,"some time ":13131,"Battleshi":13132,"during the reign ":13133,"son 's ":13134,"there and ":13135,"there 's ":13136,"trail":13137,". It is a ":13138,"ondag":13139,"operation":13140,"ed by the French ":13141,"belong":13142,"choos":13143,"could only ":13144,"warfare ":13145,"writes that ":13146,"forced the ":13147,"forces . The ":13148,". Thus , ":13149,"Division Series ":13150,"Gerrothor":13151,"Spiel":13152,"began the ":13153,"began his ":13154,"tank , ":13155,"keen ":13156,"lifting ":13157,"World Wrestling ":13158,"guns of ":13159," Attalea ":13160,"ed to the northeast ":13161,". More ":13162,". Monument ":13163,"untary ":13164,"used as ":13165,"men , ":13166,"retro":13167,"retain ":13168,"June , ":13169,"area and ":13170,"area . \n":13171,"album":13172,"sistant ":13173,"sko ":13174,"E Company ":13175,"NY 3 ":13176,"NY 425 ":13177,"continuous ":13178,"continuously ":13179,"found that ":13180,". On October ":13181,". On November ":13182,"10 @-@ ":13183,"10 minute winds of ":13184,"talent ":13185,"October , the ":13186,"tries to ":13187,"triumph":13188,"refused ":13189,"appearing ":13190,"Stevens said ":13191,"album to ":13192,"album by ":13193,". Of ":13194,"conven":13195,"convince ":13196,"convey":13197,"remains of ":13198,"transition":13199,"transformation ":13200,"Angl":13201,"curve":13202,"consider ":13203,"Lee ":13204,"Leagu":13205,"west side of the ":13206,"arious ":13207,". Donald ":13208,"January , the ":13209,"Park":13210,"Park . \n":13211,"Parque @-@ ":13212,"work of the ":13213,"restaur":13214,"discipl":13215,"large and ":13216,"Guinn":13217,"Guards ":13218,"ship , ":13219,"ships , ":13220,"case , ":13221,"polar ":13222,"was a major ":13223,"was a member of the ":13224,"ton , ":13225,"ton Benjam":13226,"officials ":13227,"path":13228,"path ":13229,"built a ":13230,"built in the ":13231,"built by the ":13232,"km / h ) . The ":13233,"les Chart ":13234,"result of the ":13235,"November the ":13236,"November , ":13237,"National Championship ":13238,"National Museum ":13239,"National Gallery ":13240,"Show":13241,"signature ":13242,"eff ":13243,"is the second ":13244,"crim":13245,"crash":13246,"crash ":13247,"emption ":13248,"empire ":13249,"portions of ":13250," Ball ":13251," Butler ":13252,"during World War II":13253,"during World War II ":13254,"ity of Manila ":13255,"San Mig":13256,"thirty @-@ ":13257,"er and Gazan ":13258," On October ":13259,"2nd Platoon ":13260,"link ":13261,"Friday ":13262,"War , ":13263,"Warning Center ":13264,"northwestward ":13265,"did not have ":13266,"did not want ":13267,"frontal ":13268,"cause ":13269,"passes ":13270,"year contract ":13271,"extending ":13272,"legacy ":13273," For the ":13274," Following the ":13275,"next day , ":13276,"ed as an ":13277,"fire . The ":13278,"held the ":13279,"instance ":13280,"even the ":13281," Two ":13282,"simultaneously ":13283,"troop ":13284,"ertain ":13285,"reached a ":13286,"position to ":13287,"Proj":13288,"USA":13289,"] the ":13290,"five @-@ ":13291,"erefor":13292,"increased the ":13293,"increase in ":13294,"increased to a ":13295,"left @-@ handed ":13296,"government of ":13297,"40 @-@ ":13298,"40 @,@ 000 ":13299,"mph ) . The ":13300,"mph ) and a ":13301,"Genesis ":13302,"Johann ":13303,"South Pol":13304,"South Africa ":13305,"dramatic ":13306,"state government ":13307,"Japanese Navy ":13308,"echo":13309,"pointed ":13310,"underwater ":13311,"viewers , ":13312,"exceed":13313,"peak":13314,"fluence ":13315,"described it ":13316,"populated ":13317,"population of ":13318,"ketones ":13319,"form a ":13320,"form of a ":13321,"force of ":13322,"notes that ":13323,"roll":13324,"ironclads were ":13325,"ironclads . \n":13326,"people in ":13327,"@,@ 000":13328,"came from ":13329,"came to be ":13330,"she is ":13331,"1969":13332,"North Korean troops ":13333," Hed PE ":13334," Head VI ":13335,"expell":13336,"record , ":13337,"Gibraltari":13338,"December 2012":13339,"variation ":13340,"performed ":13341,"system moved ":13342,"troops and ":13343,"ianus ":13344,"1982 ":13345,"respond ":13346,"intensive ":13347,"istry of ":13348,"Regional ":13349,"letters ":13350,"power of ":13351,"power and ":13352,"power out":13353,"still alive ":13354,"constructed , ":13355,"gun moun":13356,"repression ":13357,"Qual":13358,"Quarter":13359,"sonville ":13360,"replaced with ":13361,"replaced by a ":13362,"enzuel":13363,"statement ":13364,"statistical ":13365,"raise ":13366,"collabor":13367,"oki ":13368,"ernand":13369,"use a ":13370,"typhoon intensity ":13371,"Add":13372,"Adri":13373,"attack the ":13374,"attack on ":13375,"attack and ":13376,"provides ":13377,"media ":13378,"initiated ":13379," . As ":13380,"heavy rainf":13381,"military and ":13382,"Pre @-@ ":13383,"ashore ":13384,"closer to ":13385,"Christian":13386,"25 mm ":13387,"name \" ":13388,"sites ":13389,"site of the ":13390," . Two ":13391,"aircraft were ":13392,"homes , ":13393,"homes and ":13394,"atrachi":13395,"along the river ":13396,"established a ":13397,"American Beauty 's ":13398,"limb ":13399,"versi":13400,". They were ":13401,". They had ":13402,"Corpor":13403,"Corbul":13404,"ut They ":13405,". Rec":13406,". Rick":13407,"ft ) deep ":13408,
[...]
